node {
  name: "input_1"
  op: "Placeholder"
  attr {
    key: "dtype"
    value {
      type: DT_FLOAT
    }
  }
  attr {
    key: "shape"
    value {
      shape {
        dim {
          size: -1
        }
        dim {
          size: 784
        }
      }
    }
  }
}
node {
  name: "reshape/Shape"
  op: "Shape"
  input: "input_1"
  attr {
    key: "T"
    value {
      type: DT_FLOAT
    }
  }
  attr {
    key: "out_type"
    value {
      type: DT_INT32
    }
  }
}
node {
  name: "reshape/strided_slice/stack"
  op: "Const"
  attr {
    key: "dtype"
    value {
      type: DT_INT32
    }
  }
  attr {
    key: "value"
    value {
      tensor {
        dtype: DT_INT32
        tensor_shape {
          dim {
            size: 1
          }
        }
        int_val: 0
      }
    }
  }
}
node {
  name: "reshape/strided_slice/stack_1"
  op: "Const"
  attr {
    key: "dtype"
    value {
      type: DT_INT32
    }
  }
  attr {
    key: "value"
    value {
      tensor {
        dtype: DT_INT32
        tensor_shape {
          dim {
            size: 1
          }
        }
        int_val: 1
      }
    }
  }
}
node {
  name: "reshape/strided_slice/stack_2"
  op: "Const"
  attr {
    key: "dtype"
    value {
      type: DT_INT32
    }
  }
  attr {
    key: "value"
    value {
      tensor {
        dtype: DT_INT32
        tensor_shape {
          dim {
            size: 1
          }
        }
        int_val: 1
      }
    }
  }
}
node {
  name: "reshape/strided_slice"
  op: "StridedSlice"
  input: "reshape/Shape"
  input: "reshape/strided_slice/stack"
  input: "reshape/strided_slice/stack_1"
  input: "reshape/strided_slice/stack_2"
  attr {
    key: "Index"
    value {
      type: DT_INT32
    }
  }
  attr {
    key: "T"
    value {
      type: DT_INT32
    }
  }
  attr {
    key: "begin_mask"
    value {
      i: 0
    }
  }
  attr {
    key: "ellipsis_mask"
    value {
      i: 0
    }
  }
  attr {
    key: "end_mask"
    value {
      i: 0
    }
  }
  attr {
    key: "new_axis_mask"
    value {
      i: 0
    }
  }
  attr {
    key: "shrink_axis_mask"
    value {
      i: 1
    }
  }
}
node {
  name: "reshape/Reshape/shape/1"
  op: "Const"
  attr {
    key: "dtype"
    value {
      type: DT_INT32
    }
  }
  attr {
    key: "value"
    value {
      tensor {
        dtype: DT_INT32
        tensor_shape {
        }
        int_val: 28
      }
    }
  }
}
node {
  name: "reshape/Reshape/shape/2"
  op: "Const"
  attr {
    key: "dtype"
    value {
      type: DT_INT32
    }
  }
  attr {
    key: "value"
    value {
      tensor {
        dtype: DT_INT32
        tensor_shape {
        }
        int_val: 28
      }
    }
  }
}
node {
  name: "reshape/Reshape/shape/3"
  op: "Const"
  attr {
    key: "dtype"
    value {
      type: DT_INT32
    }
  }
  attr {
    key: "value"
    value {
      tensor {
        dtype: DT_INT32
        tensor_shape {
        }
        int_val: 1
      }
    }
  }
}
node {
  name: "reshape/Reshape/shape"
  op: "Pack"
  input: "reshape/strided_slice"
  input: "reshape/Reshape/shape/1"
  input: "reshape/Reshape/shape/2"
  input: "reshape/Reshape/shape/3"
  attr {
    key: "N"
    value {
      i: 4
    }
  }
  attr {
    key: "T"
    value {
      type: DT_INT32
    }
  }
  attr {
    key: "axis"
    value {
      i: 0
    }
  }
}
node {
  name: "reshape/Reshape"
  op: "Reshape"
  input: "input_1"
  input: "reshape/Reshape/shape"
  attr {
    key: "T"
    value {
      type: DT_FLOAT
    }
  }
  attr {
    key: "Tshape"
    value {
      type: DT_INT32
    }
  }
}
node {
  name: "conv2d/kernel"
  op: "Const"
  attr {
    key: "dtype"
    value {
      type: DT_FLOAT
    }
  }
  attr {
    key: "value"
    value {
      tensor {
        dtype: DT_FLOAT
        tensor_shape {
          dim {
            size: 3
          }
          dim {
            size: 3
          }
          dim {
            size: 1
          }
          dim {
            size: 6
          }
        }
        tensor_content: "\357\263\234>\200\005?\276N\233\r>\231\261r>aE\022\276}I\026\276\336\266\222\276`\014\312=u:\236\274\261\355\353>rHB\276+\"\240\276,K\024\277\362\023\331<<]\006?\\\216\207\275\371\373\"\276s/\265>0\366\010?^?\367\276\341\267\322\276E\277\362>!\271\301\2761.\264\276\251\234\244=\220\213\">\356\305>\276U#\020>\225\312\274\276\005\224\243\276\306&\355\276\376\241\t?4\372R>\013\325\325>\377\305\264\276\000\3305>R\314\227>\336\341\263\276\210\370\310\276\006xp>\252\207\344>$b\013\276\377O\273>\337\214\362=\035r\007\2774\374R\276\345\350\313>\207\343\230\2768\317\t<w\365\002?+\217\303\275n,\214\276\230\033 \275\010\324\240\275"
      }
    }
  }
}
node {
  name: "conv2d/bias"
  op: "Const"
  attr {
    key: "dtype"
    value {
      type: DT_FLOAT
    }
  }
  attr {
    key: "value"
    value {
      tensor {
        dtype: DT_FLOAT
        tensor_shape {
          dim {
            size: 6
          }
        }
        tensor_content: "\243P\370\273\322&\312\273\\H <O(2\275\"y\353\271\305-\213="
      }
    }
  }
}
node {
  name: "conv2d/Conv2D/ReadVariableOp"
  op: "Identity"
  input: "conv2d/kernel"
  attr {
    key: "T"
    value {
      type: DT_FLOAT
    }
  }
}
node {
  name: "conv2d/Conv2D"
  op: "Conv2D"
  input: "reshape/Reshape"
  input: "conv2d/Conv2D/ReadVariableOp"
  attr {
    key: "T"
    value {
      type: DT_FLOAT
    }
  }
  attr {
    key: "data_format"
    value {
      s: "NHWC"
    }
  }
  attr {
    key: "dilations"
    value {
      list {
        i: 1
        i: 1
        i: 1
        i: 1
      }
    }
  }
  attr {
    key: "explicit_paddings"
    value {
      list {
      }
    }
  }
  attr {
    key: "padding"
    value {
      s: "VALID"
    }
  }
  attr {
    key: "strides"
    value {
      list {
        i: 1
        i: 1
        i: 1
        i: 1
      }
    }
  }
  attr {
    key: "use_cudnn_on_gpu"
    value {
      b: true
    }
  }
}
node {
  name: "conv2d/BiasAdd/ReadVariableOp"
  op: "Identity"
  input: "conv2d/bias"
  attr {
    key: "T"
    value {
      type: DT_FLOAT
    }
  }
}
node {
  name: "conv2d/BiasAdd"
  op: "BiasAdd"
  input: "conv2d/Conv2D"
  input: "conv2d/BiasAdd/ReadVariableOp"
  attr {
    key: "T"
    value {
      type: DT_FLOAT
    }
  }
  attr {
    key: "data_format"
    value {
      s: "NHWC"
    }
  }
}
node {
  name: "antirectifier"
  op: "Antirectifier"
  input: "conv2d/BiasAdd"
  attr {
    key: "T"
    value {
      type: DT_FLOAT
    }
  }
}
node {
  name: "average_pooling2d/AvgPool"
  op: "AvgPool"
  input: "antirectifier"
  attr {
    key: "T"
    value {
      type: DT_FLOAT
    }
  }
  attr {
    key: "data_format"
    value {
      s: "NHWC"
    }
  }
  attr {
    key: "ksize"
    value {
      list {
        i: 1
        i: 2
        i: 2
        i: 1
      }
    }
  }
  attr {
    key: "padding"
    value {
      s: "VALID"
    }
  }
  attr {
    key: "strides"
    value {
      list {
        i: 1
        i: 2
        i: 2
        i: 1
      }
    }
  }
}
node {
  name: "conv2d_1/kernel"
  op: "Const"
  attr {
    key: "dtype"
    value {
      type: DT_FLOAT
    }
  }
  attr {
    key: "value"
    value {
      tensor {
        dtype: DT_FLOAT
        tensor_shape {
          dim {
            size: 3
          }
          dim {
            size: 3
          }
          dim {
            size: 12
          }
          dim {
            size: 16
          }
        }
        tensor_content: "\337\246\037\276-\242A\274-EG\276\200Cm>\227In>\340\304\230\275\355\204\006=~B\263\274\370!\263=3\304_\275\004K\214\275\003>v\274\212\014\210\276YK\007>\357S>=X2\321=\3053\263\275\014\240\313\275\237=\215\276\242\344\036>8-\313<\002<\275>\307\313W>rU\332\274\326.D\272s\346\301=\034D\371<lG\301\275\272\277v=E\321\277\274&\236\317\275\217V\035\275\245}\350=6&Z\276\375{\033>\312\342t=\377Ml\275<\302\277\275\372\355b\2759\323\325\275\237=\211=Z\274\270\276\267\246$=\302h8\276\340\035\343=\331\265\313\276A\200o>T\351\000\2767\334\020\275t1%\276\317b\220\276\301\223f>{\037\357=\3703\255<\321S!>\217\264\030\276\334fE<\323\217\000\276\322\330=\274\255\332\256\275\247\337\360<\211<y=\370q\271=\211\2665>\350S\327=\264y\264=\253\232\244=7\337\235=\244&\'>-BC\276L\241H\276\332\3451\276\010!\034\276(\202+\276\300\245\321\275@BH>\372\353\027>\033\352\031>\374=\243>tl\275<\253\257\217>\345@\360\274.+\373\275m\361h=\2059\270=\000#\'\276D\241@\276\037_\303\275\3674\003=\003&\342\275\340\r\233=\263,\340=l\253_\275\262\242\305\275\200VI>!\021\350<\312\240\233\274\221\225\212\275\362\330\007\276\031\237\303\275r\351\351\273\350\200\211>gY(=\376\261L\276\243\253\351\275\353K]\275\3216x\2753\350\204\276\273\014Q=l4\263\276\256\342\236>\255j\014>%\327\037\276\332R~>\311\214\213\276\350\rA>\365\3110>}\3056>\302\311\330\274O\241\010>^\265\357\275\0131\323\275\230H\273\275\323.<\275\361/\253\276\322\354\022=\005\024\225\275\375<\237<\023^\036\276\307\265\200\276Y{\227\276\277c\244=@H\316\274\017p\375=\330s\020\276:k\030\276\365\370]=\224-\310=\374d\337\274\274\371\360\275\350F\305<(\207P>p\2760=\341\256-=\244\005f=\211\252\252\276\204\200\325\275\267\003V=<\251\270=\243\014\001\276\277\346\005=@g\254<:\362N\276\204\355\253>\244\317\240=7\376\227>2)\202\276\2538\235=\230:?\274\002\001\203\275\237\231C\275\024de\276\036jX\276k\027\350=\311h,>k*)\275\000~\206\275v!&\276Q&\346=o\354{<B\243\236>\026\305<\274\020 />\0371\240\275\370\356\216=1\010\024=\253T\031=g\260v<\244p$\275\334\231?>\261\024\215<\225\3618>\017\206*\275\3462\211\276p\334\276=\215b\016\275+dt\275H\207\237\275\253\276==\300\270`=\030\363x\275\333\243\020>^\345\010\276:\021\263\276\005}^\276\271\217y>\023\327\215\276\247\001>>\206\313a>Y\321O\2765L\364\274\357_$>^3k>\202VA\276\220z\024>\254\034\360=\202\375j\275\3200\331=\266I\307\275\205\264\021\275\007\301k>J\3307\276\322HH\276\246\024\274\274T\261\334=\363)A\274\235Sk>\247\247\355\275\236nT=\r\027f>\232\267\210\275\330O <I\260\013\275\303\3439\276\315\223\252>l\003\260\274\201\301\020\275A\025\204\275\365A\023\276@\024\310\275\367@o\2766\343\362\275r\202\201\276\003\317L\2756\2652>>\277\200\276\236D\306=\216\'\265\276\346\301\227>\273\344W\276V\0316>\n\312%\275\230\250Q\276\361\2329\276_x%=\270\333\232=\215Be>\003\272\231\276%\2065>=ym>\203sl\275\266\325\257\274\255\307\343<\326\201\375\275\322\371\207\272}\303\376<_I(\274\345\203\335\276\323\217d\274l\330\013\276\260~S>\355\362(>\t\022\327\276\312\372K\276?\273N\276\345\221e\275`cC\275\212\211P=\206\371\225>\272\322\250=\316\327\263>\304H-;\002\327a>\343H\267>\311y\255\272/5!=}\242\276<\031\254\200<\031\342A\276\225\247\365\274\207W\007\276\371i+\275Z\365\244;K\356S\276\275\350\225\276$q%\276\227\214c>PQ\303\276\'\232\252>\3013_>[\253\200\274%\030\350=\224\2473\276\326\211G\276\207W\255=d\0364\276\252\320\275<\204\236\202\275\036\037\233>\337\351\210\276\265Tn\276\345\036\316\276\301\002R>H\020\371\276\025=\250<\250\373\014>\332\307\335\275\014\3369>\307\214\355\273\'\252p>`\220#=Z\007\356=\256\3019\276a\215\226>u\334\224\275\2370;\276\301\351\376\275z\231O=AX\323\275au\250\275\223\236\025\275\276\021\032\276n!$\276\207\207-\276 \310\020\276a\177\210<B\340\243=\036\367k\276@\267\212>\207\036p\275\000f\361=\363$_\275\331\266$>\002B|>Q5\021>\016A\206=-ow>\274\202\367\2758\013\221\275\202;\351\275\310ee\274\350\325\303\275/\374\240\275q\003\331\2745Y1\276\016\004\200<3,\020\276#\225\230>N\336\242\276\'_\234>J\311\033\274\323\254~\276\230\243\241=?\321\005\276\014R`\276MJ\026\276\377F\016\274\327~I=\374X)>\2359\213\276}\224\t>O\253\037\276\034#\177>\276\260\351=\262\231\000>H\301\346\274S\362\372=\223d \276h\360o\275tK(\275=h\371\275\340\211N\276\205\246h=\354T\253\275\266z{=\217\341\266\275\323\332\244\274T\331\000=y>a>\374\240\035\274wt\223;<\177\301=\244C\034\275F\250\333\275\260\262\022\275W\224b\276\354\023\200\275\242$\253=\242\360\220\276c\001<\276h\313\262=\240\213\364<][\376=\2542\200\275L\317\332>RZ\\\275K\255W>\031\335\331=\240\222\"\276\332\273\241\276\232\247\024=\263\225\363\275T\355\216<\347\362\251>\364\206\203>3\340/\276zr0>\366\2375\275\371so\276\365B\003\276\021e\275\275\211\010&>\363\323\n>\201I->\021=\322<c\207\210\276\203g\242>\335|\033=\366k\220=\336\341y\275\322#\003=\227C\242>|K\207\276Z\362:\276\206S\270\275Q\202?>@i&>\3142\014\275\371\010&>\262x\252\276\334\036\267>\350T\004\276\342nJ>\251\252\340\275\265\216\206\275\235\2431\2765\203\335;US\314\275\223T\324\275\212\341\225\276s\004\315\275Z\203Z\275\213\222\004>\236\310\352=\245&+>\217\006\014\276\221u\356=\366\276V\276\367\256\346\275\030\266\365\276N\277\347=\030\346\274=\216--=|\010S=\271\313F>\322\307\305=|\322\217>\200r\326<\244}\243>M\215#\276\200V\257=\241\0001>\213\010\030=\213\230\273=\227\242\225>\013\306\344>w\023\225=\030\225\235>Vz\200\275[S\r\275r\205\260\276\003M\031>\244?\221\276\rx\254=g\036\301\274\240!!\276\210&\211\276\026\261\021\276\264\303\022>\343\241\227\276U\244\212>\201\311\246>\301\304w\274\306\3728>>l\t=!\247\034\276z\205j9&\211\275<h\341\276\276\236i^=\346n\242>\324_\214\276`\205r<\210\027\325\275\344\354\206=\246\n\236\276\204G\220\275\r\'\353=\230\022\250\275\022x\361=G\257\224\276H\031\252=@2\n>\274v\236>\265|\243\275tB\256<(\3124:\312H$>\027\361:>\226\227`\274\327\216\257\275\007m\033;\237\256\256=\210\216\220\276\262\206\202>@@\244<?\233|\275\r\024\211\276\313\301\005\275M.\233\275\300\231\003>\272\374\232\276\353\274\203>\206\335\037>\014\n\325<\373v\230>pyC\276\3568\200\276t\303l>\225\335\225\2755\263\030<\237w*\275j\324g>\330\252\016<\230\013Y<`\367\202>\2510\326\274\347)\216\276\355L]\276Du\243=\202\013a\276\004L\323=P6\027\276\002hr\274\213\034\007>\010m+\275\025\026\226\273\373\367/<\227CM=\025GE\276\205n\223<\276\005\330\2765\234\376\275kY\357\274\\\177\330=\006\370\312=\352\033Q>\272\242\342\275\243U\036\275\330Y\022\276\023\253<>\n\347R\276<\264\366=\313B&\276\257\274\204\275X\311\234\276E\273\267<\315\331-\276\"\212\010\276>\202\311\275/*\000>K!*=MP9<\216o/\276\3044\256\274\004\336\033\276\234\324\375\275\303\212\027>\310<\216\276\240\004\241>\361@I\275w\2551=\372\020\204\275\224\255\203>&\322\312\275\316$P>\370*\363\275\225\351\225\2757l*\276\030\021\251\275\022(\212=\032\274\331=\021-\361\274\327\303\n>\306.F>\364\266\315\274\'Mg\275\003\214\227>;\216\025\274a\255\365=b\2075<;M><rb\t\2760z\262\275\301\205\324\2749[ >!\241@\276L\027t=\021\r\235=\247@\333\275}o%>\013d9\275\310\271\264\275f\234\031\276\036\362\355<\300\226\r\277\323y\237\275\031S\334<O\377\322\2759j\341=u\300g>\005;\003\276[\350\231>\210\000i>-/9\275\267\252\260=\242\314\013\276\362\214\237\275\367\276B=\007d\246=+|\261\2750\267M>\233\335\336=\342||>\035\262@\276\347\354d;\0140$\2768\000\332=T\271\277\275u\377\324\2758U\203=\336\370\254>V\377\203<X!W>\270\201\255>\224\347+\276\027z3=E\221\014\276\013u\006\2760\255<\276\000\244\267=-n\361>\024\250$>\032\337\306\276\001\222\006\275\221\361\254=\243\310J>\277s2\275s\306#\275m\361l\274\253\340\265\273Ol\224\275\343\236!>\214&\277\275n\251\000\276\352\272\302=\360\264\005\275+\026A=\333\244W\2764\216\230\275\300_,\271\340\216\036>[7\205\276\334\341Q\275P\366\n>\261\311\373=\351\2669\276\362\256\222>B2m=\"\206U\276\307\017\177\276\033k\007>\2448P\272\345t\023\2760\021-\276\035\177L\274\216.\017=\033\315\341>sM\342\274\016\361\020=\302\223A\276\215\300\353=\376\250$>\004\263\254>\206.Q\275\275\002\211\2740\036\021<&\261\364<\301\0205>8U(\276V\327\351\2769\334\227>\206\267\035\274{\026\344\275\315x\323\275\277ez=\201\227\207=][\020>4\216S\275\023^9>\031\277(=\242\033\364=|\334\366=0\227\225>\211\201\200\276\r\214\250<\272/\244=\370y\032\276c\272\217\276k\225\016=e\300\014>dZ\252<\300b>=G\034F=(\003\270\275\321\312m\275/\252+\276\316\010S=q\306\017\276\321^\r>\222\333}=\031,w>\207sq\274f\327k=\320\325M>\237\217N\276\234h\355\274W\272\020\276\010@\023\275\361\333\323\275N\222\271=\000!@\275\2004\023\276a~R\275\2068\343=O\346\330\275\312k1\276\227=o\275:^\225\275\271\234\025>_\010\327\273/\316\010>b\331J\276\324\"[>\277:\215\275\207\252l=\306\224%=S\273\n\275\327\240m=\307\tV>!\331\316<n\346\250=\002\026t\276\201\007\345=b\352\013\276>\220j\275\373\242\220\274\251\361\203\275m\357;\276\251\273\260>\370/\233\275qP\327\274m\220~\276\014\027(>$|l\276\311$\255>\36514\276\222+\001>\345f\235\275\312\231X\276\007,\272\275\270\326\362=\366.\214\275\223SD>\301}\013\276\215\201B\276v\307p>\263\262D\276\013k\253=\305\321\213\275\376\341\330=~NG=\371Z\270<J\037\236\275\331\021(>\372\001\365\275M\310\224=\206\362\020=\215\365e\276nL+>\237-C>sY\362\276A\222I>[\246F>\270s_\276}\233(\276\376z\023>\212\200\376\276\272\3349>P\\\217>F7|>\311q1>HV\361=MB\222\275\276\271\004>\365y\307>\034\212\227\275\037\246\207\276\245\022\353<H\026o\276\234\2567\276T\230\\>\021\351\036>}2\266=8\236g>E\004\021=\3319a\276\340\3279>\271\304\246\275\032\212U>\354\240x\276D\235T>w\216\023>\362\245\320>\336\014\257<3\235\010\275\033\272\204=\037\225\210\276Oi`\276*\205.\276\361\253\241\276,\260\263=\335\3010\275\rj\312=\337=>>?7\007\277\222\004\236\274|Y\202>\001\035w>Tx\030\276\363\265#\276>-I>\022b+\276\376\377\030\275\303>\\=\367\237\003\275\256\262\006\276\334.R>\300dK>\317\\\366=\210J\034\276\002\372\206\276-\260g\275\270\271n\275\324G:<\002,\177\276<\007F>?\000h>\266\004\237\276\371\310~\276\033\245n\275\230i\356=Q/\022:\252\240\223\275s&\221>\377\306\037\276\275\3203\276\311\'\305=z\335\324\275~)\271>pf!\275\367\177?>j\001\271=\030*&=\177\250%\276!~\320>\'\260/\276ma\">^q\025\276}\273\256=\"\016\365=\316\2240\276\361\2632\276\013\214\305>\234zx\276\347\323|\276`\366\266\275m\303\221=\333\367Q>w\177o\276s\352k\276;\270H>\256\300\261;\023W\202>\335x\375\275\364\303\335\275$u2\275\250\346\3579\2403\037>\251\367\323=\024\325/\276\206\007:>\330\2154>\242 \376\274c\251\222\274\016i\220\275\371H{=\303\243\306<\r\237\361\275S\007\306\275q\251 >!d[\276\2541\220\2748\0078\275Z6\351<qf\210\274\350\204\216=\255\346\255\276\371\"\354\275\215\r\240\276\241\333\022>\345\245\301\275\037\001\032># \225\276\307<\314<\\\336)=\220\257\003>\347!\206\275n\200\213\275i\243Z=\316;\200=\027\204\243>k\323\237\27664\003=\003&R\276\353\207\r\276@\225d\2750e=\276.\031.\276g\032\177>\036\000\251=,\235\030>\035r\224\275\354\340/>\302d\013\276\030\352%<\256\261\346=\354\300%>\231Z|\276\025\233`>\\\255>\276\234C0>\243\275\350=]\362\342\274\2602\017\276G;\221\276\372T\345\273/\254\'> \333\361<B2\000=\010\273j>\2634C=,\306&=\236\302\020>\213\tn\2737\037\013=\\(\211<~L\010\276\247P\241\274\351\037\214>\371P\264>\256\200+\275\346\307\236<\\\0147>\353\310\253\273W_\220=\216\370\324=\272\271\005\276\325\027\336\275\036\327\267=!\344\003\276\356B\374\275\377\301\201>\351V\330\276\004\247\005>\277\346_>\265y\326\276\354\013\223\275\241\t\353\275\371\221\343\275\344\n\340\2763\234\365>\r\310\254>x\217>\276\216\346\346>`\244X\276\366\220\002=\363L\225=\367\214\363\275Z\333\005\276\037\2606>\223\311\013\276\027\330\227=Q\253/\276S\001%\275\336}/\275\037\226a>\'\000\235\276\360\016\212=\274\337\222=T\302\305=\222\376^>T\363g\276\331\310\221\275D-\242<\234\257\313>37\303\276\365a\255=P\014\021\277\306F\222\275\221\245\235<\036\207\340\275\240\205<=\353\210\363>\235\337u\2765\022\014\275\202\360\206>\210z\314\276\303\2721>\010\376\376=\210c\335>\203\276\035\276\266\265\335=A2\252>VU\354<F\377\217<?)\206\276!^b=\330\002\036\277\377\266\026>\220JY>*\257\304<%<T\274\321\303\025\276\364t\022\275\376?G\276m\307\251>g\275\313=\225\226\374\275\241\255\374>\367\255D\276\374l\204\276Aa\033\276J\010\314=\022;\021\277\355[8>\2376T>c%\225\276\255\220\032>\326\271\034\275N\036E\276\276W\225\276\303\344?\276\364\223\241=2u*>\272\005\322=c\321\205\274\250z\313<\211!\314\275\272\276\202>{\343\224\274\275\342\033\276\000\301Z>\010C\232=\245N\270\275I\205\253>pp\355\275\310=\241\275\341\226o\276\275\356\014>\375\235\266=\2773D=\032h\221\275\320fH\276?#F>RL\210>\274rc>g\212w\276\375M\305=t\261\371\273\265\260%>\002\265\261=v\003J\276\006%\014<\323A\262>\033Z{\274n\217\353\275p0T\275\304\347#>`V[>\037l0\276\333\352u\275\346\336!>\253o\253\275\\}\205\275\217}e>\237Oq\276\027z3\276\267\026j=\226\321Q\276\312\300\031=v\201\261\276@.\221=\203\213\336<\003z\262\274\013D\210\276\260\031\320=+\237\216=\003\177\334\275\0351\272\275\000\271\324\274\214\317d>\"\365\351\275\342\263a>\232rc\276\003\341_\273w5\240\274\220)\242\276u\252P\274\343\365\342\275\246\270\324=]Q\217\276A\371\347= \001w\275\033\374:>\260;\220\276\271\035\303=L\003E\275\2211\367=\347\0176>N\361\270\275\352\213\220\275\246g\017=j\033\365\275\r\227-=\t\344`>!\037\232\276\004\317\003>\247}B\275\205\267\003\276\273\214.\276\"G\275>\022(->?\346\341\275+\177\014<\007\020\210\2762c\265=\260t5=^\367\">&\337\016\275O.Z>V\227\306<-L\'>\352\232\304>I,\215\276\3255k=l^\316\275\374\022\232\276\353\005o=\221\'1\276\227\334!\276\334\310\210\276\3459\234>\250Ax\276\201n\225<\305:\007>\304x!=\231\257\200=\010\201!\275\022xM\276\347\026\026>\241_\013=\212\346\336\275\301\314\344\275\027\317\244\276\231\336%=GoP>+#\256;\217\315\177\276\365t\206>\221\322\277\275\365A\213>\221\253d=0X\353=r\317\024\275\366\005\200>\364y\336\2742\005\206>\013\254(>\1773\230>\r\324v\275,`5>\204\004\361<\177\'\023=\035\243\222\276\207\206\367<F\372\243>\371Vk>\270\320\206>=\221i\275\271\363\277\275\314%\t\277\276tX\275\341\207\207\276UMe\276\363\252\372\275nGq=\332\201\027?\365Y\264>\353g\307\276SK\266>f\323\276\275\034D\224=\263\375\207=\005\006)>\321\364\021\276\214\326\010\276X\324\030>s\304\244\275\340\237N\276+\323\341<<6\272\275>\362\321=\356\250S>\211\314X\276\237c\000>\356u\241\276;:\262>za\005\274\231\247\351=Jw<>-\231\365\275\355yL\276\254\001\363>7\313\030\276e)\037\276\360Wi\276S\273\313=9G\224\273\254\377\310\274@m8\276\207y\r>\346\211|\276\262\307\325>+\020\200>\t\2137\276D\201\371\275\203\005\034>\203\354\231\275ge\032>\226\372\241\275\327~\371\275fMi\276@\357\034=n\316\214=\343.\201\2747\306]\276\310f\243>j\310\350=e\263\254<\337\323\022>I\205\217\275\225\206l>g\n}=\222-P\276hg\006>^\024\242\274l\214c\276M^4\2757R\250=g\005\243;~\271\223\275\342\240\311\275\232\tM\276\217E\264<C\207I\276;\234\202\274\327#\351\275\256\325\3359\014\366u\275\022\007Z\275\272\034[\275\324\035\331\274@o\020\276 \354\036=z\003\314\275k\013\r=C\306X\275\305\tk=#\265=\275&!\252>=\016x\275\274*0\276\267d\257>Sma=\354>\000\275.\221\366\275|\330U>\177\255\304=U\223\223>_\256\022\276\323C\276\273\002\2730\276\270\346J\275\344\277\254\273s\341V\276\251\235\t\276Oxn=\306\033\345<h,X\2758`\024=\345\302\361<\374\231\020=\201\216h>\356\001\216\275\332&D\275\276\025\277;~`N>P\2720=\364\305\324\275\376N\214\272\314\220\025\276(h\216\275R\210B\276\235\3105\276\361i\205>\230\002J>\007/\320\274J\332\211\276\330\r\205>\031\276\036\276\205\024\251\275&NX\276\006|\352<\354Iz=gzh\276\360XT=Ej\211\276\036s\277=5\257x;\233;C>\265\032\206>Sy\010\275+\370\247\274\363&\241>y\235\021\276o\217\226\275\r\267G>\024r\330\274\220\331\227\275\241\343v=\355\254\t\276r\334\374;\035\032d\276\255\213\277>^\214\246=\034@\334\276p\2607=\324\035\224<)\256\t>\215\310\241\276%;^\276\221\264|>]/R>\006n\221=^Z\201>\t-\010=\343\020\262=\223j\252=\344;U\276\227\375\315\2763\207\273>`\322\240\274\352\035\246>^\204J>\337\261\025\276\312\365\317\275\316@\267<\365\222\364=(\014R>\267n\312\275R\271\003\276P\004G\276i8s=\365\2453=c\351\205<x\316l;\377\261y=d\217N>\rs\275>\024Z\375\275\374\326~=j,U\276\262gs\2766o\274=F\217O\2764P\225\2758\370\214\274\257\355\317\276\221d\353>QP\312>\n\370\266\276f\014\n?\032+R>\306\213\334\275\331\313\202=\001\006l\274\361\237\320=\336UF\276W\354\247\276\236V\010=z\310&>YLl<\227$\246=\232\270\022>\362I\003\276\377h\252=\206w\213=\"(\210\276A\212\373>\354\032\321\276\336\274\224>\243\324\024=\225\321\346=-\000\\\276J\362\253\276\216Bp\275(\271~>C\356\025\276\223\270I\275\'\r~<\220\341/\276\237\353\000\276\344g\013>\243Ar\276\177=,?\372\220\335=\233\007Q>\013\303\006>\216L\327\272|\312\212=Y\327\234> \251\212\276pN#=\235Y\t\276.\360\035=\026\365\204>\272\241&\276\007\317&\273\035-\376=\310\231\342<\361&\223\276_\310Q\274\3174t=b\204\017>>{\017\275\315\\\333=\244U\257>DN\300\275\231\'\274\2714@\031\276\020\376\216\2756RT\276\337\223\"\276\375\236J>!\002\214\276\346N\326>\336\253\240\275K\270\254>\303\353\260\276\367\352\t\276T\364Z=\034@C>R\025\366=\004\246#>\222!(\276\224TB>Y\002\343=\263\230\257=O\025&>\035\372#\273\030\262\031\276\332\243\257>\354\177\270\275\351\322\356\275O\234\326>5Lg=\232\264\311<\025\016\215=VQf\275\031\303\264\274;\001r>.-\334=\005U\336\275\3557J\276V\267\302<\004\241\344\275m\211 \276\\\310\"\275\257\265\277=\334\342\303=\3214\202>\013+<>\234=\243\275\n|\273=\217\362[>Nh\301\275\207\251\236\2754\334\301=\264\033\005\276\212\357\036\275W\216\r\276\267M\021>\t\201e\275\232\332\341=\257pC\275\225\216D\275\334\321\n>j\216!>\311\022e\275\314\216\325\275c\031\t\276\204K\037\276\016\331f=\034\233/\276\323\335\245</\030\345\273\'\200\034\276\376\304\221\274H\'9\276\033\3774>\256\\O>\326\323c\276\277O\232\275\'\010\030<\242\"?=\345>\264>h7\362\275\006\224\311=\225]\345\274\316\226\232;\"\350\334=\274\331)\275\356]\337=U\251\243\276\336c)\275\265\332>>2}\245=2F\230\276\336H\227=\356\274~<\265\244(>~\2753\277!j\212\276J\373o=\261\321\226>L*\030\276bB\267>C\346?>\342z\357\275\353r\360>\304,\300\275[\342x\276Xa\370=2\020\022=\330\201i>I\310\204=\322\274\336\274\344H\204>s\255\351\275\243!\362=t\344\202>\223\343f>\315\033l\276\246\245\266=l`\302\275\000=\372=]o\211\275\251{\207>5\353\245\275(\\\305;\247\370Q>\261\227\220\276\304\030k\274\305\374\251\276\326\311|\276\367I\311=\311\027u\2768j\":\376\034\275>z\013\325\276<n\240=\271\321\242>\010\246\263\276\317&\004?\336J\005=\262\364\010\276\034\221\205\275{$\007<\2619\320>\333\302-=\'\250\216\276Q\231\277\275m\202\231\274\212\252t\276i\031{>\016\222\264=-\354v=cP-=T\331\267=\374\241\303\276\306\337\276\274\304\"\001\277\214\334\376=\242\351D\275a\372\207>\227\2603=\364\246\227\276\321\"+\276\010f\307>\tx\307\276\230\302\231>\261:%>\264\373u\276O7\202\276q\306\202>\346\241\344\275B\351\262>&\345\'\274\305\341>>1QU>\325V\243=H\215\035?\315w3\2763$3\276\224\304\216>\250\032\032\276\360\033\237\2762?\266<\003\022\331=\346\364\247=\315\022E>CvS\276\336\347O\275\033O\312=Q\304~>\n\350\300\275\364\351\014\275\221\214\377=\222f\006\276\211\316\274=\000\244\214<I\226\014>\211\r\033\276\034\300\022\276\224\264-=\311G\027\274D\340\240\276\325Bz>\227K\255=Y \256>\272E\217\276\351\235\304=m3q\276A83\276p\354\326:\334\373@\274\342\275{=\273\351\315=r-\207\276t\243\216<R\n\023>q\177E\276\314\360\010\275q3\317=\230\317\241\276\217\201\031\276+\370\205<7\210\220=\212\244\204=\276\313`=\2465)\276\343\026P>\302\343q>\263j\033>\250\332S=\037~>\2767\322+<\t\225\004\275\007\355`\275j \347\273~\031Z=\"\311\325\273\225\334\327<\277]\251=d\231\341\275\337\251N>\375h(\274\216s8>5{H\274\353\235\321;\n\255\014\276\006y\370\275\336\253B\276\023s\377=qo\206<`+W>V\213\334="
      }
    }
  }
}
node {
  name: "conv2d_1/bias"
  op: "Const"
  attr {
    key: "dtype"
    value {
      type: DT_FLOAT
    }
  }
  attr {
    key: "value"
    value {
      tensor {
        dtype: DT_FLOAT
        tensor_shape {
          dim {
            size: 16
          }
        }
        tensor_content: "\374w\006>\002Or\273\322PA\274\305&\251=\271W\314=\331s\210:iu\033\275\277\323\220\275\347\261\313\275\332\230\376\274\037(\212\274w\030\237=\371|\336\275\363\351\257\274 \216\023=\007\375\255\275"
      }
    }
  }
}
node {
  name: "conv2d_1/Conv2D/ReadVariableOp"
  op: "Identity"
  input: "conv2d_1/kernel"
  attr {
    key: "T"
    value {
      type: DT_FLOAT
    }
  }
}
node {
  name: "conv2d_1/Conv2D"
  op: "Conv2D"
  input: "average_pooling2d/AvgPool"
  input: "conv2d_1/Conv2D/ReadVariableOp"
  attr {
    key: "T"
    value {
      type: DT_FLOAT
    }
  }
  attr {
    key: "data_format"
    value {
      s: "NHWC"
    }
  }
  attr {
    key: "dilations"
    value {
      list {
        i: 1
        i: 1
        i: 1
        i: 1
      }
    }
  }
  attr {
    key: "explicit_paddings"
    value {
      list {
      }
    }
  }
  attr {
    key: "padding"
    value {
      s: "VALID"
    }
  }
  attr {
    key: "strides"
    value {
      list {
        i: 1
        i: 1
        i: 1
        i: 1
      }
    }
  }
  attr {
    key: "use_cudnn_on_gpu"
    value {
      b: true
    }
  }
}
node {
  name: "conv2d_1/BiasAdd/ReadVariableOp"
  op: "Identity"
  input: "conv2d_1/bias"
  attr {
    key: "T"
    value {
      type: DT_FLOAT
    }
  }
}
node {
  name: "conv2d_1/BiasAdd"
  op: "BiasAdd"
  input: "conv2d_1/Conv2D"
  input: "conv2d_1/BiasAdd/ReadVariableOp"
  attr {
    key: "T"
    value {
      type: DT_FLOAT
    }
  }
  attr {
    key: "data_format"
    value {
      s: "NHWC"
    }
  }
}
node {
  name: "antirectifier_1"
  op: "Antirectifier"
  input: "conv2d_1/BiasAdd"
  attr {
    key: "T"
    value {
      type: DT_FLOAT
    }
  }
}
node {
  name: "average_pooling2d_1/AvgPool"
  op: "AvgPool"
  input: "antirectifier_1"
  attr {
    key: "T"
    value {
      type: DT_FLOAT
    }
  }
  attr {
    key: "data_format"
    value {
      s: "NHWC"
    }
  }
  attr {
    key: "ksize"
    value {
      list {
        i: 1
        i: 2
        i: 2
        i: 1
      }
    }
  }
  attr {
    key: "padding"
    value {
      s: "VALID"
    }
  }
  attr {
    key: "strides"
    value {
      list {
        i: 1
        i: 2
        i: 2
        i: 1
      }
    }
  }
}
node {
  name: "flatten/Shape"
  op: "Shape"
  input: "average_pooling2d_1/AvgPool"
  attr {
    key: "T"
    value {
      type: DT_FLOAT
    }
  }
  attr {
    key: "out_type"
    value {
      type: DT_INT32
    }
  }
}
node {
  name: "flatten/strided_slice/stack"
  op: "Const"
  attr {
    key: "dtype"
    value {
      type: DT_INT32
    }
  }
  attr {
    key: "value"
    value {
      tensor {
        dtype: DT_INT32
        tensor_shape {
          dim {
            size: 1
          }
        }
        int_val: 0
      }
    }
  }
}
node {
  name: "flatten/strided_slice/stack_1"
  op: "Const"
  attr {
    key: "dtype"
    value {
      type: DT_INT32
    }
  }
  attr {
    key: "value"
    value {
      tensor {
        dtype: DT_INT32
        tensor_shape {
          dim {
            size: 1
          }
        }
        int_val: 1
      }
    }
  }
}
node {
  name: "flatten/strided_slice/stack_2"
  op: "Const"
  attr {
    key: "dtype"
    value {
      type: DT_INT32
    }
  }
  attr {
    key: "value"
    value {
      tensor {
        dtype: DT_INT32
        tensor_shape {
          dim {
            size: 1
          }
        }
        int_val: 1
      }
    }
  }
}
node {
  name: "flatten/strided_slice"
  op: "StridedSlice"
  input: "flatten/Shape"
  input: "flatten/strided_slice/stack"
  input: "flatten/strided_slice/stack_1"
  input: "flatten/strided_slice/stack_2"
  attr {
    key: "Index"
    value {
      type: DT_INT32
    }
  }
  attr {
    key: "T"
    value {
      type: DT_INT32
    }
  }
  attr {
    key: "begin_mask"
    value {
      i: 0
    }
  }
  attr {
    key: "ellipsis_mask"
    value {
      i: 0
    }
  }
  attr {
    key: "end_mask"
    value {
      i: 0
    }
  }
  attr {
    key: "new_axis_mask"
    value {
      i: 0
    }
  }
  attr {
    key: "shrink_axis_mask"
    value {
      i: 1
    }
  }
}
node {
  name: "flatten/Reshape/shape/1"
  op: "Const"
  attr {
    key: "dtype"
    value {
      type: DT_INT32
    }
  }
  attr {
    key: "value"
    value {
      tensor {
        dtype: DT_INT32
        tensor_shape {
        }
        int_val: -1
      }
    }
  }
}
node {
  name: "flatten/Reshape/shape"
  op: "Pack"
  input: "flatten/strided_slice"
  input: "flatten/Reshape/shape/1"
  attr {
    key: "N"
    value {
      i: 2
    }
  }
  attr {
    key: "T"
    value {
      type: DT_INT32
    }
  }
  attr {
    key: "axis"
    value {
      i: 0
    }
  }
}
node {
  name: "flatten/Reshape"
  op: "Reshape"
  input: "average_pooling2d_1/AvgPool"
  input: "flatten/Reshape/shape"
  attr {
    key: "T"
    value {
      type: DT_FLOAT
    }
  }
  attr {
    key: "Tshape"
    value {
      type: DT_INT32
    }
  }
}
node {
  name: "dense/kernel"
  op: "Const"
  attr {
    key: "dtype"
    value {
      type: DT_FLOAT
    }
  }
  attr {
    key: "value"
    value {
      tensor {
        dtype: DT_FLOAT
        tensor_shape {
          dim {
            size: 800
          }
          dim {
            size: 120
          }
        }
        tensor_content: "x\325\203=\303_\226\274\320\034@\274D\343\363<5\322C<d\260\016\272X\326\304=/2\304<\245\3627\275\273\321\216=(\330Q\275\360(\355\273!\210~\275Q\264q\274\233M\201=\030$r=\251e+=\\\316\202=\332\211\321<\342\251\322=g\313\262\274\242D>\274)y\266=\355\350\307\272cv\316=\311}\332=\351\034\377<\031W<=\177!\211=\336_\304\274q\314B\275\267{\375:\226d\373\274\377\275\030=a\320\347<T\352\314=\\\366K\275=\350\312\275\211\345\344</x\277\273\254\333\203\275\341\220z=\003\272\014>\216U\215=\376\352\026=\322N\320\273z\360\265\275-9\325\275\325c{\274\363\372S<\006\325$=\006\257\223<]CO\275\337\257\352<\302\314\035>\210\352\345=?+\t<A\216\037\274H\264\336<9\315\234\275\334\357Y\275\350i\013=\354\220\242\274\322j\353\274\216\243\337\274\306\305&<\210,\323\273\233\362\372<f\235\033\275\244\352\017=R?t\275\327\342\320;\244sC\275\300$\245<\005\310K\275\r\376}\275=;Y=G\370&=l\002\3529\331l\211=X\'\311\273\003\225\227=T:\327<\223\247\006\275B\252R\275sp\250=\034o\031\275\244c^=\364@\024\275\004?3\275\037XN\275\236\222\207\275U\000/\274\310\360l\273$sJ=u\257+\275\364\317\353<\226\330\273\274\226#4\275\321\3101<\373[:\274\332w\245=j\214\360\274\224\342%\274v=\025=\207\307\002\275\361h\027\275/|\315=\324\322\230=\207\371\330<\231\213\270=\226h\261\275#_\350\275\211\021\367=\360\030\316\274a\027\357=\001s\216=P\001\246<\026\2636\274\256+\017\275\211\270\221<q\t\205\275\271\373\270;\375\3379\275aV!>Y\264\322\274\340\3359\275\316G?\2757@\222;\265\310\003\2769\307\017=\264\201\377=\337\371\271<MY\303<\242z\305\275\345U\002\275@\356!<\t\371\271<\000u\000>\214~c\271u\232z>\370\306Y=\345vL<\207{U\275\004\005\345=\275\356~\275\n\351\256=\264x\310<\034\214s<\302\024,=\023\370E;\214.\375=\3653\256\274\030\312\310\274\267\324\353<z4\t\274e3\265\275^\354\310:\251\335\344<\255^\265<\371\351;<\263\311S\275W[\014\276\203.\273=S\n\226\275B\361-\275b\220\266\2751x]=g\334\007>\261^5\27572\232\274\344n\225<\323\031\323\275\031\270\362<\302\337\331=IC\006\276=\332\235=\373;L=K\254\275;c\351\336\275\334\315\352\275\030\246m\2753)\223=\003\350\017<s\021\017\275y\213\r\276\310\322\004\275\353\232\016=01{\275G\323\330\275r\306\007\275K\363k\275\014:i\275\367d\234=\331Pp\275\217\r\351\274\312\n\350\274\226\357\364\2741\227\033\275o\353\030\276\260z*\276\014\270h\274e\257\206=\205\374a\275\017\334\253\274\272\235\034=\3342\366\275\247\247\234;\010\"i\274\331\311Z\275\212\245\013>\3130\354;n4R\274\225i\221\275\3576\001>\23635\273\310<\316<@B\273\274S}\305\274d\310\315\275\332r\022\276\344\024\307;*!\250\275\026\304\266\274\300\322\034\274\373\373\260;\264\271\372=\302\237\211\275@)D=ojT=\267\016\211=\366r\304\275\340W\271=Y\004\026<Znt=C\370\312\274/J\373\275=\002\246<\013\264Z=/\310$\275Y\206\314<\317\027v\273\205\341\000>c(l=\277Q\254<\220\"A\2758h\274\275Zk\326<\207\342\246\274\026q\266\275\t\363\311;]`\345=\326\376A=\342\213$\275i\276r\275\340\r\253<\223\237\013\275\344b\200\275\343\325\224=\302\020\236=\006v\017>z\354\326;\255\243P\274\351\277\035\275\270^\024>I\223\224\275\036\303\346=\246\335\300:\367\245\350;\027\220\230=|\322\201\275\274\\\025>\311\355\226\275\220\201\016\275\256\331\t=Z\361\317=\276&\337<\3653_\275\250\245\236\275\315X\034>#e\005\275i\001\340<_\206\223\275\"\035\341\274\037x\025\275\230i\201;\325\214t<}:\036<\225f\353<l9\322\275\005\215\213=m`\010=Y\225m=\353]\273\267\301N;\273\0224\376\275U\023\211;\250p\224\274\235\263\202;\226X.=\252\0368<\377\312\225\275\2658\353\273\377\360d\275\353`\"=~\033\312\273\252\357f=.\177N\275\315f\366\274{\2420\275\265\347\253\275\'\212\207<\203\361\274;v\324\r:\372V\337<\276\241D\275\304\230k\273(\254\225=\264\332\230=\3750\027=k5\313\2750\234\"\275+\333\263=K\023\231\273~\234\367=\177\346P\275\327\r\327\274!=G<|\331\210\275*\302\350\272\337F\023=7\261\227\274\343\250b=\020x\271\275\241U\201=\240\344c<\273\004\t>\317V6<\264\201e=`>\017\276\374\330\274\275\272\353B=\205\252\235=No\303\274\354]\211=\376;\331\273\266\304\327=\347{\217\274\206\213f\275\377&\202\2746\303N=\220\266\034=\321k\270=\354\357R\275\3324e=\231\341\217\274\210\246=\275\365%m\275t]\201=\266\262\272\274\213\031a\275^\376\224\274\247\324\270:\241?4<\271\274\312=\030U\246\274\033\2312=\036*\316\275e9Z=\016\026\317=X\367\257\274\245\317\032\275\372\256\300\274\303\305\362;^\212\341<Pa?\275\021\021A\275\306\352\312\274\316\217\252\275\367gC=\265\325\312\273\377\300\346\274\355\344\334=U\274\031\275\001\316\321\274\200EU=\257<\225=\241N\030=\370i\205\273\250\347\347\274\257\216\004\276\272\262\021;\215D\n=\213\247s<Uk\002\275mu\251;qq\035=\305E\213\275\363/\234=\026mV=\'\356\326=\3538\327=\310\335\010>\'\305u<\352\216M\275\024\201\001<\242b\224=\024\360\021=\023g\362\274\355\266F=g?\034\274\250*\226=D\217\307<f\243\025=hE\316\274{\260\317=\231^i=oS\227\275\244\226\270\274\210\320z=\214[\266\273\352\330/=\243\0304\275\253\356k=t\"\032=R\215\325\274\243]\313<C\343\200:\364\nn=\267\016\024\274\253\013)\274\266\342\220\275\220\242\350<\275\364\t=\205\017\223\272+\314\350\275\3270w\275\364\266\013>`\260\306=\204\232\2367 dD=\374*g=\025\036\267;T\240U=\036\262\257\275\177W\231\273\214\342\301\275q}\336\274A\245\034\275\340&\256\274*\334+=7HW\275\220v\342\274\376G\377\273l\244%=\241\336\003<\366|\273\275[\021[=\005s\224\274t*\255\2744\256w\275\244\005\013=p4\'\274\265\377\316\273s5\274<\006\202\203<\234\354x=\000\002\302=;\374\341<\344u\002\275\323!\235\273H\032\350=\213\237\203\275e\322+=\342\r\217<Y9\214\275\371\3742=h\235\350<o\322L=\023\356R\274\251\326\346;\r\366\002\276\270[\335;\235\306\313\275\264\356\271\275\373z\370\274&\022\247\273BN\202\275\312R\247;>\275\016=\2238\023\274\304\3343\275\272.o\275\325\0316\275afX>+\301e=\210L\216\275\235\022\376\275oC\326:\341R\363<=\203)\276\'\250\314<]\214\266<\206\231\225\275\364-\247\274\374\3131>}\022\261=\232\356D\274o#\337::}\014\275\010\263\316<\225\0217=Q\276]\275\2544S\275\231C\357\273\271\303\247=\221\\$\275\020\023\212\275\3267\026>q\277~=\033\251\301=P\337!\275\013\311\231=0\375w\276[vO\275\347\035P=GJ&<\220\235w<v>O=\206.e\274SXt\274\345v\2079\t\325r=\244%\r=\363E-={C\212;\206T\335=\224\261\"\276\355\001B<*F\010\275rY\341\274\004\373\261=\240v\203=I}\200\275\3408\307\275}KE<\377:B\275\033\327\003\276\223\2243=M\235\363=\013_\265<\253\305\025\275\347\254j=1\377\004\275\227cw\275D;\350\275\205\002\310<\370\331\261=}\253\246<c\256\223\275\321;\004\276\236]\221\275^=\026\276\210\250\354\275\021U\336\27591=\275\204p\031>\353\357?\275H\255c=\317\235-=\006x\340\275\261\232V<?M\266\275\314\362\341=/\240\356\275y\262\035=\364\tV;\246v@\275\326f\330<\310*\036>Vf\354=>k\217=\222|y=D){<\240\212<<\017\035\367;\330\031W=\022.C\275\305\272 =AG\210<(\032\032\273\177\320\254<P\031\006\275$\204\032=\310\226i\275\256\327/;\247@\354=g\256\346<\033D\204\275\007q\275=\266`\233\276\344__>?U\323\275\264n$>E\356\207>-\261\020>\032\025_\275\177\030\361=\023CA\276\211\014O>8\316\374\275Z\342\302=\244\303\250\275\014\234\037>\3528\027\276\007\337[\276\340\341\031\274\022M\336\274m\204\240>\236\257\010\276\364_\356>\r\2062\275\034\360%\276\2020 =k\177\233=i\023\232\276\256\213\037>\337\353\233<3\030\363\275o\204C>\376\363\315\275\016\225s>G\342>\275\253\001\r\276$\334\337<\032\2122>-\224\341\275\017\331?>\247H}=O\211\205>\363yO=H\020\276\275\261\\\024\276\221A\010>Mr\214=Y-\214\276\315\231\247\276T\360g=\316\361\331=\022\200v\276\273\210\225<\326\"=>\030\371\326=\340>\327\275\n\'~=\010.\261\276\357\027e\276\2420+\274\344\316}=\005\336\247\275\206\373U\276\223q\326\275\240B\227\275E\177\200=\030Z\021\275\025VG\275u\371\300=1\257\337;L7L\275\016I\251<\264#0\275\032}\027\276\356O\376\2744\035\201<\340\203l\273y\002\262\275\337\232,\276\306(\211\2756\335\210=\223\253\002>\244\355M>\272\334+=\347\371]=\371\016\201\273\344\005->\214A\347\274O\205V\276\363\247\021=T\223\362=K\030\251<\001lL>\340p4;\264\254\340\274\302\261\274=\003\315\037>>\241*<\370\320\020>R\035\022=|\027\226<;\343\260\276\256\211\227\276a\243\321\275xF\213<A*\322=\336\206H=G}\211=\220\372\270=WzE\275`\2015\275W%\035>\343\276\325\275^\374\'>\353\236\253<\235\033Y\276\341\320\004\275B\020\311\275\360\0057\2764[\277<\260\242\255\274\245\344\037\276\263\277G=\265\006?=\001u\300=\000\342X=w/b\274>\336\013=\035\374\002\276\235R\215\275C%\026;dh\032\275c\324/\275z\267y=\357\006\227\275\264\3579\274\260q\242\275J\346i=\006L\213\274x\303\335=Q\246\030>\255h\322=N\030D\275\354\231\227=g1\006\276I\271h<[\204\370;\376\\\312\275f`g=b\370\347\275\2251C\275\322\362\254=,\235\264=\304}\227=\222JR=\331\314\327\275\312Z\375=$\313\230=e/\274\275\214\375\027=\210\002\361\274\234\225\343=T\350\004\276\315\322-<\310\030]=?\215\311<\335\352R<\014;\000=\201\t\336=\360\202\204;\243\346T=\021\230\275\2720\213\205=F\274\272=\323\036|\2756\352\216\275\036\373\375:=p\236\273\224\234\206=Vs\033\273\217W\360=\\{\214<\226\304\204=\tf\225=\255\203s\275m\337\251\275\233\303(\275@\201\324\274\006X\374<U\007\354=\250W\223=_\254+=&5\315\274)\370H;\032\246|=\037\272`<\253\276\242\274p\265k;\253=\240:\241\016\212=\217\303!=\004\374\335\274\027b\270\275pT5\275\305\324\346=X\245\016=h\205\276=\330<\254=\304;O\275\337\032\035=\320\331S<\3478\307;\0361#\274S\314z\275\215p\221<K\222\362\274ZK\207\274\361\013-\274\205\200?=p\311\273\275\032\300\n\275\213\327+\276l\374\025\276\"\220\303\273\010\270\202\274n\267\237\275\364^\273\274\264\257\214<\261\252\004=\311\035\260\270F\202\010\275\231\031\275\275\017\206\332\274\235\020\224==W\337=a\333\213<\025\256\246;\306\237\340<\302\343I\274\302=b\275\320\021\206;\261\357\270=\201PT=b\311\267\275#\003\017=\237\001\032\275\365\362\241<~b,=\357\\\003=$\213\266\2752\034\027=\332\355W\274\020\200E;\226K\276<s6\231\274\333\324\"=\302>\243=\340;\235\275\252j\301<\247Bg;+sJ\274\353\204\365<\037\261\220\275b\201\213<?\333z\274\207y3=`\264\270<\251\311\026\275\034m\347=\212\025\300\275X\276#\275\311\035\372<v\343\202=N:\022=<\2047\275\220|\262\275\007t\030=\003\235\354\274!\351\313\275\354\013\233=\262!\001:\315\033\270=\227\022\275\275A\357\006=\027f\354\275_ @\276\256d\026=\210\310 <\t)G\274\266\326\375\273w\272\233=\337\031\253\275\301<*\274\"\273\033<\016\336\300<\353 ;\275\034j\250=\222\317\273\275\246G\352\274\272/\322\275F\366\222\275\347u\203;Q\367\033=Z\226\203=o\327\245<Ht]<(\252\\=>\243\325\275C4\r\275\031-E<\206\371\213;w\014\336=PX\232\275\311%\206\274\000<@\275\311i\253\275(\027\255:\361\307\326\275\203\307\356\275G\303\006>K\360\237\274\251\332^\274v\037<\275\034\337\344\274?\271\323\275\345Z6;\r\345\342=\260]\031<\211\344\371\275\253\233\355<\360I\357\273\345Qg=\357P\343=\013Cg\274@\247\307<\006\220\211\274\317\371\331=\365\223\365;`\364\224=\177\246d\274k\267\374\272\227\220\033\276\366\336\245\274&SZ\275_\211M=\353\033\356\275\274\034X\275\021\222\001=\356:0\273A\331\345\275\202T\200;\213\203\240\275\257\2050=\243o\004\275\247\227\326\272\372=\276< \361/<\330\252\331\275)B\201\275\022\244$=\200\0250=eh|\274r\231\227=\374Z\221\275\267Z\351=\306\317\007=D\351_=bk\036<\033\003?\2757T\213\275\337\003\336=\304\256\367\275g \200=S\016\301<\326~\\=\346:\342\274\332K\224;\374\355\023=\254\020d\274\217\023\n\275\250\024*\275M\334\252=G\022\3519<\022\345<_\364\326\275\376\3358\273\320\364\005>}\373\020\275\304\326s\275\342\327\255\273\264\035\230\275X\tK=|\267\215<\206\315\302\274\250\2667\274H\330Q\275\213\342C\275\t\230O\275\212\337\026;\373\251\303\272R\245{\274;\006\202\272\345\034\263\2754\242\211<\312-\246=$\333\225\275\317ZO\275\264\2679=i\035\014=~\215.\275\'\303\275<W\2102=J\\\223\274X\331\252<$2e=D%i=\207i#=<a/\275\264\267\243=\204+\261=\211f0\275\243\324\'=\256\"\030\275\000\267\302<\250\326E=9bE=o\337\232\274\223\205\023=\225`\037=\230~\016\275\334\032x=\034e\331<\242nN\273H-\204\2757\371g\275JOz=\255\333\301<\372\377\024\275\302\343\250=\213\327\217=(\312 <`\235\325\275z\235\032\276\312\252\205\274E\005\317=w \354=\332\377\034\274\003M~=\232\316\024\274X\001#=\260\r\262\275\005H\332\275y\363\035\275\\\t\237\275\203\225\n>\372\360\326\275\036\333\036\275\214\034f\275^\227|<\341\304\304\275~\034t\275\014h\314\275N9\306\273%\242\021\275>\202\014=\216\026B\272E\323\200<\364\317\257;\357\300\204=zG\250\275*\004u\2758\3313=\213W\330\274^\021\033\275\247\000w<\'S\244\275\275d\250<\211\007\347<p\250\270\274\345C\212=\'+\256\275x\220a\275R\365\227\275\255&\252=p\330\333<\236\252\2519*\271\210\274%$\243\2735\246y<\212\241\307\274\037.\204\275\213\217\010>\313\304\'<`\214\010=\240\016\255\275p\022\377=R*k=\332\021\365\274j\334A<\321T\226\274\303\n%=s/\245=Ibp<`jX\275\262\345\256<K\316\n=vK\'\275\375?3=\357\336@=!\302\330\275p\231\t\275<b\242<\371\245\203\275\343@\246<jr\317=\247\346\352\2748\322\263\274\272O==!\300\322\275\211-\226; \0138\275\252\366\244\275\007\270\220=Jh\305\274\2727\242;\244tU\275-\370F<{L}\275\261\262\221\274\231#\312<\361\352\r\275\364\366\016\275\361\335\220=\342\313\376\272\363\215\232=\363\006\257<\267\205l<$\270\'=`\030\006<\030\314\236\275\030p\267\275\275S\213\275\006\256\226=\t-\317<\305\313\224\275f\032\351\2742H\253\274\245&a=\254\245\007>7\301b\275)k =a\347\267=\261pV\275\241\177T\275\005\224\342\274\362\2522\274\257%\"\275\235\313\366<\301\223\210=5\036q=jm\342;\327\341\013=\247\364\220\275K\315,\2758\314\313\274>\322U=\016Q\303<Y/\242\275\276d\013;C5\016\275d\372\024=n\341\231=\256\013\215=\201F9\275\355\243%\275}\207z<\034\334\256=\371 0\275\005\261\311\2748f\371=\207X\207\274g\257;=w,\237=g\221\203\273\300H\210=\017;\005>\023D\003\275\223\330\226\275\272\245\207=\247\355\322\274\2746\350=l\377\023\274\036\2225<\346\301\303\274\360\355S\275\310\325@\274\243\327l=O\037\306\275m1f<!\013Q\275)er<Q\034\004\275\353r\347=\225\021\242<?\321\346;\336\020\017=\032\366\277<\306\030\260=\213\243R=\206\360e\272mh\324\274\357s\267=\341\317m\275[*\340;bG\234\273qC>=\273\323\325\274\256\313j<ev\222\275\257\205\254=\027\275\006=o-\344=\313\n\004\276\363\356B\276\336\275\256\275\271W\235\275~Y2=\304\300\240\273\360\376\261<\326\255-\275\034\370?\275H\364}\2739$\367\275\232\000\255=.\273r=\211S\324<\250\350]=\2728\345<\374$\371\274\322\'\315\274\240\335\200\272\324s6>\354\0364\275\027\220\276;\252\360\302=\'\241h=:_\236\275\331\226\205\275\332V\337\275\324\333\305=B\212O\274l+X<\307\304b<\254\374\253=\206\240\354\274)a\235=-\377\033<h\356\007\276b\232\202\274\213\246\366\273-|\277=\324\006\231\275C\352,\275\2620\260\275O(\014=I\203-=r\233~=\005\374L=\005\334$\275\322X\300<\'\2176<I\301\254=\242\357L\275(\002\317\275\371\037s=!\242L\275$C\r=f\344~\275\202\220l\275\361\331\370=\376\000?9\r*\005\274\207\362\322\275\237O\t\275My\324=1\234u=+\016S=-\266O=\377\341)\275\350\202\224\275\254\240\312\275\377\023\367\275\n\205\304<\327\013\261\275-b\343<\210\307\211\273\306Ie\275\211H\004\275\010\0019;\252<Z\275\244\365\233\275\212\225R;m\252\037\276o\034t\274\017\273\221\275\253+\334<\253\326\346<\307\343\220\275\351\244Z;W\323+=\371W\215\274\261A\206=\027ex\275\r\324\213=ZV\330=u$\341=*\327\204<\373`%<\241\366\233\275\032\346\201\275\363g\030=y\246\026\275h\331\213<\373\354/\275\000J\210\274|\251\257\275\223\241d\274e\025\312=pk\017>\016~\321;/R\001\276\030\243d<\032\275\262\275\335\321\006\275;\210D<EQ\323=9q\311=\307\200\217= \2671\275S\362\314<\301W\351\2751\253i<3f\315\275gc\205\275\313\317m=\245\346/=\376\322\227=`g\207=\221\036\256\275\244\027}=\363\361\216<\300\335\034=\247\255w\275\343\234&\274\231T\022\275\257X\r=\255G\253\273Y=\016>8\222\262\275\3052\271\275\235Wh=\312\222\251=q\343\030>\204\317:\275\014H\031>Pn\276\275\321\355\216=\231\314\355\275\033\365\304\275\001\371f=WCv\275^\035\033>\177\370O<\374@\373=\371\307\034\275E\307\227=\353\207\224=\177Tv=\005\367L=o\004\226\273\206\321\200=U0\276\273>\354\323\275\326\347\025\273\263\253\202\2742\311\304\275\355\\\336\274\035\353.=\016\007q\275\225-\224<C\362\354\274\325x\326\274\375y\240\275t\300S\275\307\025b;\215\321\000=\014\304%;\242\353B\275\234\205\216\275$h#\274\375!G\275\210RQ=\377\313=\275nQ\033\275\257\003\301=*\212\313\275\250\274\277\275\362*1\275\316\220\373<\037\336y=\213\017\333\273\245%\353=-\267A\275y\207\353;\006z3\275Q\202\031\275\276\263^\273\273\'$=\024\347\300=;ot\275_\326G=k\246\252\274\013u\030\275\272\t\351\273\235=N=\000\270\333=\027\233]=\240\300R\273\022\260\267\275\240w\310=\334^\232\274j]\372=74o<+\013\"\274\272\222\270\275\256\002\231\274\271\256+\275\001~l\274\321\265\351=Tb:\275\265VZ\275\204gr\275\352\340\372<kJ\231=\245\026k=\253f\352\274\177\027\t=5\344\t\275\t\372\252:r\361\300\275)m\"\275j\373%\275\220@Q\275\245`\277\274r{\027\275w\024\352\274\035\361\035=\306\230>=\357*E\275\221a\227\275\254y3\275\354\013\342<\210f#=K\207\313\2754\362!\275\t\312P\275r\206\306=\332\332\n>\n\257\004>\016bs\274\236\255\032;\242\374q=ww\006=\250\370\236=\306\360\200=\375\316\262:U|\312\274Ly\220=\225f\226<D\266\337\275\305\300b=b\325R><\222\252\275\343$%<\266\354\335=\321\036-\275\305n\006\275\215\274\331\275\254\214\035\275=\364\221=\342\2769=\213&3\273\231\341\005\275.Y\213=\002\307\n=\266\375\240=t\370Z\274 6\023\274]\3067=74Z\275\037\375\336=]`I\274\276\344\034=\220<\024\275\243\027\317<\013\212\004;\261\2642=\372\255\225\274\357l\317\275\002\303~=\300E\035\273\273\370\221\275\245 \021;\367\346\256=\"!\211\273\237\023\246\274z\245*\275\215\244\264\275\031\262j<\341i\375=\246\251\266\275s\200\230\274\367U\205\275=\211C\275\020\363\374\272\2662)\2749\026\277\275\005s\030>F\236\310\274\034\236\222\275@\271n=\371\016\002\275\024\210\306=+\214\017=\304\221\301\2754y\236\275J\304f=\271;\306<bH\367<\006\010_\275\211\216\317\274G\201\217\275\324:M\276qL<=\220\235\200;\250\264O<\000J\3119\276\022}\275\020\276\003\275c\255`\275\216yp\275O\327\215=\374v\233<\325\" <f\006\271<\202\244\r\273v\330\220=*\222\216=a+\202=k\232e=\334R\004\272\342\223\007\275\260\023\030>-\347\026>\204\231\225<\215\270C=\211\377\001>jXH=\201\3465\275\311y\216\275/-\274=\r63<\301\244\t=\3119\331=Q\265\211=)\"X\275\325\335\224\275\232\306E\275V\016\272\274\010m\265=]\261(>i\226\016>\336\376\370\275ya\033\275S{\016\276\256I\201=\024\035\016;\300\371\334\273\301\317%=\320\0077=\005\262_=\301x`\273\327\206\t\276\275Nh\275\031~\205=\021\255\252\2759f\365:\276U]\275\272\260)\275\'\325j\274\003\363\215=\213\006\"<\245\t\223\275\025IQ<\274\001\025<\312\262s\273\352\303\241\275L\360G=\236\262\227=*6%>g\003\301\275\263 {\275\221\037\346\274\"\230\357\275\273\2613=v6N=NAY\275\333\017\325\275\342\016\365\274\'\024<>X^\260=\237\022\220=\036[\013\2764\337`\275\220\325k\273P\313n=\347\307l\275\337\343\000=\334\007\227<\234%\365=.\214%\275\352\223\321;\022\363\314\273\225\325]=\033I\247\275.\234\270;\013\357\233=\233M)\276\266\235x=\220\233\276<\315\3729\275\3039Q=\342\202O\275\225\270\256\274A;5=\252\201\275=[\026B=\351\022\224=\325R.\276\372\037!=L\323\273\275\331\300!\275 \211\242\275\325\023\241\275z\344\032>g\267H\276\033\314U<\001\271D<\240\2209>\306\215\014\276\233iu\275u\276\030\276\323\272`\276mpf<\005Z#=W\302J=#\031|\274J\351\230=\274\246\376=H\312\346\275SI\202=\236\363\027=H\335\"\272\351\312C>\240 s=\202\2576\275J\273~=Y|\236\275\345I\200\276\021\312D=`\223\001\274\356H\351=\202,\257<\341\014\003\272\301\260\210\275\262m\314<\372S\000=5\272\224=$i\342<\273\254\272<\337\203q\274\340w\023\276C\262\306\273\277\224\311=m\324\017\275,8Z\275G\203-\275>t\243\274\003\323m=\244\216\255\274}\373+=\0263\324<y\300\221<\315\366 >Hb\226\2744\332C=\377\000\340<\2005\243\2756\304 =\373\020s=\225B\013>\335\007\233=\241\226\277=\307F\021\275p\030%\274-\221\243\275\250^\350<\214\200>=j\302\217=/\223\261\275q\307\254\274\351W\230=c\3441=\232\\\027\275\020V,\276Nd\251\274z\246|\275k\247Y\275%\006\215\274\250s\215=\2776\273=<\311\027\275\026W\244\275I\001\342<d\360(=\024q\223=u\004\363=\010\315\324<\\r\201<\262\354*=l\374\245\274\036\242\017=:\0064\276h\365\364=7\255,\2758\004\272\275\373G\017=\034\272\224\275c\300)<\301\222@=\300&\377<x\261\243\275\330\331\025\275\001\027\351=4\211/=d0_\275\002\343H\275\233\317\343\275\307\233\344=\264c\235;\2046\001\275\346\013\031\276\246V\376\275\322\237\201\275\376\210*>\261\216\001\275\313\030o\275\231\345$<\300\267u=\211\335\225\273\224;\004=YA\204\274g\245\242=\252\023Y=\241\265\031=\201R\276\275\312\220\260:\272\355\230\275\t\362Z=\324z\031\276\273\342\307\275\213\305\374\274~=k\275D\264\"=(\3344<\212\366^=Z\355^=\003\237\202\275\243\004P\275LN\301\274\\.\235=\000\2214=\202\016\312=\315\251\245\275\354\263z\273\375\'\221<u\017\313=_\304\002\275l`\217\275r*\250\275f\306\220\275\024\006\216=\221c\211\275\247e\275<,\240o=\333\\\325=\267\277\257<T\260\006\276\225\273D\276g\330\275\275{\017T>#\t\332=\270\374\277=\020\275\331\274\036+\375\274vA\013\276W\327\262\275\030K2\2726\271(>\252\267,>\2521\352=\257\0309\275y\330\220=\357\367 =\346t\005\276S\350\306\274\376\002\334\275vZ\200\276\334\235&\275\365\312\205\275v~+\2763\027\265=\275\377|=\220@>\275\300\201\215\274\346aT=\266qQ>\263y\271\275\306\\\357\274W?\031>Iw\016\276\232\317\336;\261\322O\275I\222\002\275k@\206\275\222\222\276=a\2747=\353\236\233\275X\252\200=\243\322\016\275`C\177\275c\254Z\276\262.<\273!\362\375\272e-\361\275\325\371\177\275\312\202\225\275\253\347\035\276\371\216\370<\036\232\343=\013A\037\275\237\324\247\273*\316\213=\":\036\274\267\303\035=\365\214\254\275\231sr<\237\340X=\225\2361=7\203\306=\362\351\246\275\n{\326\274V\265q\275\034\224+\275m\376z\274\214A\033>\231|@\274-\230\257\274\273>\313\275`\323!\274\247\266\337=\000a1\275\373]\010\275\3525;=\354i\362=\037\342\247<\377\347\267=s\253\021=\275K\271\275d7_\275\3254\247\275\\\217{<\223j\315<\273t\264\275J\263\370;VVp\275\n\0012=\000\356*\275\355\037\240=srE<\362)B=\212:\214\276\356\"\376\273\316\336\010\276\200(|\275\010tW=S\024\332<7\310\377;\342Q\212=v\374\351\275\263\276\3469<\246\230\274U\013\203\275\207\300\251=\233\330\000>\017+\013>Te\310<\231\205\375\274Yl\330\275\331\314\220=\0301\230<\216S\304\275\300\324\253=\205\246\013\275\356\224\367<\224z\020\275F1\034\273\300\023\203<F\016\014\276fE \275~~3\274U\327/\275;\330\251\274\\ \345\274\270\260A=C`\252\275Y}\245=7\357C\273\253\373\223<\237\357\224\275wPJ=\004\2714=y\r\010\276\305\300\206<\033\0046\275\224=\225\275^\340\305<{\365\316\275D\227F\275\036\223\352\275hE\333<\255\347U=\253\031d=\303\025\265\274\t-\031\274\013`\254\275\014\205m=\264\311\314\275UE{\275\337\314\202\275 `I\275(\345n=\217\306\356\274M\236\315\274Tt_\275#\223\262\274\212\212\005\2757\317\247<x\315\235=L\234\030=\207\030\025\274v8\240\275\037\037\252=\261e\255;\236\265\241\275\003\017\270\275\320\324\213<CPU=\253<\230=\361\244\345<xj\020\275\377I(\275\245\361\017\275\334\265\257=\305\302n=\343\036\210\274\026\275[\275um\274\272\016}\005=r=%=\334/\266\272/\026h=[bp=\321V\027=^@ \275\272\372\314;\340g\\=\226\376\034\2753*\354\273\263\232#=\221\200\224<\243\234\014\276:\024\357\275m\317\\\275\267\312\030\274\313M\226=\253\002\335=UL\325\274\316\227\221\274=\375\337<\345.\006\275Ht\353\274\372\306\345\275z\227Q=\023\363\270=?\305\230=.\010\225\275\357\372\020\275\222\020\366<\226\001`\275\242`!\275m\2209\276R\0036\275\200\'\211=\330}\360\274\357hH=\211\0066;\226\333$\275\260\357x=|\324y\274X\037\325;\346\343 \275`\363#\276\311\332\373<\000:\310=\351\204\361\273\"?\227\274\034\270\336\2741\345F<u\034\356\273IO\030\275\344\322\222\275\027\347\211\275\354i\334==,~\273T\343\242\275\td\310;f\345\367=\204H\n=\345wL;\020\r\377\274t\253\023>}\201\035\274\254P\251=\311x\343\274\247\3007\275\022-=\276\270\237\016<\363\310\346<O\314F>\212\356\204>*i\220=W\016\n\276\346-_=\314MD\276\251E}\275\227\251*<S8\356;V\001\236=\004\352\362\274\326\3162=\262\333}\275\336\177\336\275\266g0=R/W\275\254t\362\274\237(k\276&3\321=s\230\301\275*m(\275\373\003J=\374 A>L\322<\276\377,\033\275\021G\366=\321Z\375<X \026\274\354\346\177\275_YE=Gl\261;\013\020\203\275\0260c\274\265\256\235\275\324\325\311=O{\275<\"\312\n=-f\010\276\255\3656\276\364\254\210\275\305Lo=\211\311\334=\314,G\275/\024\332\275\275m\001\276u\271}:R\371\343=\031\277\204\275\252\230/=\275>\244=\301\373n=\365\311,\275\226M\225=j\225\206<\013\035\006=\245\007\213\274\002Mx\275\335E+\275\370\020\037\276\244\313\265\274\326\264\n\275\337yg\275\027\234\220\275x\245\225\275Do\213<\001=%>I\210S=\323]F\275\236\345\001>\352E\241\276\247\t?=\246I\357\275\345\331=\276\210\252\275<xZ\027=\352\3339<\375!\'\276\373\253\241=\376f\207=\317\261\022>\366!\206\275\3234\n\275\310\264Q\2761\376p\276\215S\233\275l\2070\2756\347\250=\010\020$\275\306\003\000\275\313\307\000\275\222\036\214=f\314%<5{h=\206\332\022\276%/\261=\031I\303<\350\016\221\275\335K\243;\265\273\345=m\333\027\276\373\365\224=\303\037\"\275\023\226x<\020,\370<=\007\\<\201\316\331<#1\021\275\315\034\013\276\242\315[<\353\302\213<o\000B<\345\3001\275\002g\003\276\260IR\275\214\312\252\275:\330\265\273\030\244\264=\263\016\262=}^\353\274\333ud\275\310\356\027<\304Kw\274V\346\262=w+>\275\010x\275\275l\327\000>\316\274\326\274\213\022,=\273?\253\272b\002\204\275\214l\275</\024\304=\0020\245\275\274m;\275iz\221=4\324\013=6\237W\275\235\247\004<m1\227\273\216\205\255=\367\r\231\272\220\270\255\275\3751P\274\356\027\331<\233\373\017\272\375-\302=7Z\303\275\330:\233\275\014\201\035\275\244\373<=\300h\343\275\217\367\332\275}\2160<\327\267\222=\271\307\232=\362\372\020<z\240\362=\362\247\201=\313\221\375=vb\240<sXg9O\0263\275c\264\261\275u\252*=\365\221n=N0\243\274~\027\244\275a\340\374\272\244\203M;\266\006\373\275\213y\211\275\367\231Q\275\203\343K<\223\3250=\271T\250\275b\257\375<\374\210\312\274\277\256h\274\307g\024\275\300\247\250=\267B+<\373\t\267\274\217\271\274<^\213q\275\250\327\030\2743\301\263\275\313\341q\275SF|\275\312\244\022<~\331\013>\276\350a=\006\243*=\017\"\244<0=\037\274K\247\';\304\337\234\275\347\270\002=\223\367\261\275f\233\347\274 \366\320\275%=%=\003^\226\275\213O\034<~\322M=wR\302=\027\000\210\2755\377\217=\200\355\303\274\352\2134=\317\211\310\274\213v\211=\262Q\360\274\276\024\234<\202\255\005=\370\355\n\276\304<\242<\346\004_\275\361\356,<%7\212=\031,\331=p\227o\275\033\n-=\332X>=\263\t\325\275\350V\332\275\007\0308\275+\031$\275G1\316=})2=\355\245\201\273\225\255\246\275^\212$>:\220\013={G\370\272c\375L\275</\237\275\367\373\022=\3045\216=\222\307V=b6Y=?\243\214\275\024\264\014\274\336\265\226=\017E%>\017\340\316=\226\317\243<5\032\203\2748\264\210\275\223{\202\275V\370\007\275\320\016\276\275AJ\323\274\016\357\302=v\265\345<\362Y.=\342\201p\275\345\334\300\275\341\226r\275i\376\353<M\023A\274\307\357\333=\226Y\260\274\374\223\217=\014h\\<\311\324\356\274\374\341\017\276\211\027\217\275\214\2007\275\364\007\002\275\337Y\032\275\016\335\"\275{\224\233=\221%\316\275\374\022\242=G)\366=&^\263<\211o\216\274{\357e=\006\326\352\275\264rg=\375*d=\367\335\202\275\206\370\233\274\341C9=x\010\205=\373\372.=8\r\306\275\037,\371<\276pR\275D\3342\274P\304\250=\260!g=\"\360\315;\003\225t=\345\213\235\275.\214l=\377k\277<\300\027\233\275\\Xs\274\360\366\240\274\373\215\006>\247\233\332<\320\373\217=\357\236\320<Q\266{=Ll\271=$\2132<\202\252a=)&\325\275\224{\253\275h)\030\273\370+\271\275g\302\301;\204\372\370=\025\262\241\274\313\220-\2759\347K=\255r}=\320)\320<\330\256\013=\221\261\t\275\0101\353<\002\010-\276\203\361\221\275J3\203=\033\213\202\2730\027\303=\325\003\220=\350\030\266<\376\224\214=\311\310\273\2744.\322\274w\332\222\275X\236\317=)\312\253=\236\222\365=&\373\212=\347\034J=T3\247\275\261\220F<^\213\252\275\353\347\201\275\351\272\276\275\031\355\227=\352\2505\274\004\030\357<R\217I=\020/\036>P{d<~\022\320\275HM\244\275\276\253\035=x{c= \023D=\310\362\350\275\024G\226\272\302\324\275\275\230\230\202\275N{\033>\026\244\277\275.\374\351\274=\0205=\312\370\324<\014\002\342=\2565\321\275\032B\273\275\274\352R\274\352\256]\274[C)\275\211\024\033>\245\275\266\275}(\242\275&\257\333=\332\370\220<\257\274\022>\202R\007\276\332\3019=\254\324\231=\336\'Z\274\332\231\215=J\347\244=\200\024\217\275\200u2>\36072\275@U0=+o\246\275y\257\322\275bV\277<\240\262\2549\365sI<\351\3461=\237\031\005>T\242\254\272*\346X=\336\216\000>q\312+<j\266\364\274M\214f=\221j\333\275\010\317\010>\245\341.=W\323\224=\343\377\002\275\224+\037\275M[\304\2751)\250\272\200k\205\275\017\376\230=\322-\203\275Y]\005=\240\235\004>Tl\250\275\275\333\321\274}V/<*\006\326=\271\362\237=W\003\314=\254\014\220\275w`\334\274v\214\n\276\\\316\325=\342u\214=o\034\026>\357*\302=\262\276G\275\263\001\216\275?V,=\007\275\231\274I\313\217=\224\267j\275\244jT\275A\337\001\275\371\310\305\275\352\236.=/\314;\275s\230(\275\300$\366<L&S<X\'U\275\341\264\002\275\331N\221=\345.\277=J\343_\276h\017\030\275T\255\343;\366\375Y\275S\327\024=\3046\027\272\0306p<\204\333\375;,?f\274\013f\223\275\240(\323\274\236\227I\275$\'G>\226\372\035>\016\027\323=\204\325\'\275\332\372\355\274z{\225\275\254\212R=2\273\217\275\316_\272\275:\210g=sjG=\205+\026=\026\300\210;\246g\306=\020y\277\274\321\302,\275c\314\302\275\003\224\222<\014\274\017=:\304\253\275N\024\n=\374\367\021=\205\204\262\274\276\221\202\274c$\026\275\317\224\202\275|9\301<\037\205\036>\353\272\016=\215.r\276\351C\342\275m6\277\275EG\204;\302\003\312=\315\245\322\274\010\312\342=\261\207J\275\332\025\312\275#H\020=W\327S\275)\033@=\335\326\000\276\032lg\274\256\221-\275\307\232L=\026\tW=\302\223\223\275rH&=\267\256\246=J\307\353\275\364\232\311\275\016(\030=\374\356N\274\177j\327\274K\353\241\275\213\211\363\270\377\362\244<\273\230\217=>\321\277<1\220\r=\223 k\275\023\013\315=\276_\263\275\332\372\346;\311\352\014\276\034\210\370=\224\223\206<\374$%=O\241\320;+\202*\275\\\004\216=\277\247\236<\376d\271\274b\036\206=Rs\233\275\276\244\262\272S\014\300;YBy=Kz >\334/6\275\004*\305\275\210=\007<\005\354\013\275`*\265\274\231\320\300\275\373\203\373:c\244\030>\344\274T\275E\021\207\275U\374\010\275\321Z\210=\204s;\275\033s\233=D\304\251\274f\036\222=\0046\373\275\211FO\275\357\377\370\274\304\025t=\013\273\232=YTe\275-x\215\275\207\270\243\275\363G\304=,\237\226=\306\313\275=\332]\026\275J\251\364\274\270\242\343\275\211@1<\326]\337<\352\230\302\273\372N\221<<\335M<A\330\222<\355t`:\017\245\335\275\t\300%\273+\317\013\275\300J\373<\013OR=T\346\302=+-\257<\030V?\275\022\254\231\275\346\027N<\300g\211=`\364\240\275\272I@\275Y\231\262\275\343\231\255=\013\262f\273J\356\022\275\202F\330<n6\224\275\376\236\202<\315\277?\275\240\215\320\275iCH=I2\200<`\244E\27501\255<gz\246=*=\326\274\337\035Z\275\256c\270\275\013\033\244\275\003UO\275\323\3061=j\333J\275\nW\216\275\362\326Q\274@!Z=\2464\000>c\220\267<\265\367\212<\036\235\343<\265\226r\275\3405*=\323\250\342\275]\2274>\025\365\351;+\263;\275\353\031@=\364\213\337=h\026\024\274\267\232\002>\362\362\263\275o\016\255\273F^\200<\210\006\022\275:X\275<\223\367\300=\241\212\321<n\007U\2758\255\002\276\350\273\373=2\217Q\274\227\206\265: ?\245=\341\246\312=\352\201R\275\262D\242<\241\3451>\350x\372=\263\364\034\276s\227\265\275\025\352\002>\365\312?\275D\315P=\265\334\026\275lr\261<qp\230\274jO\222\275\230,7\275\240\315b<\375#V\275\025\'\353\273C\\\244=jYc\275G\242;\275\016\310\236=\020\1776=Q\303\237\275\377\352\254\275K1:\275\217\247Y=\372\223\370==\257\344\272\365/\217=\254k\025\275\253\257\217\275T\333\275\275\t\n\017\274%I\221\275\240\033\230\275\013\321>\275\245K\371<l\246\t>\300j\370=\005\375\216=$\006K\275\311\275\246\275\035:\234\275\331\237\357;\326~\315=\342\222\347<qF\217=\306Q\342\274s6\'\275\010\271\202\274\317\207u\275\215Y\234=w\350\301\274\302\023\177=M\350\345=fXl=\024\356\256\274\010Z\377\273\362\363\230=@\t\016=\2175\300\275\007\231!\275\024{Q\275(\002\374\273\271\227p==\215\220\275\262\356\037\275&\326i\275\362\t\244=g0\343\274\200#Y=\002{\350\2746\313\276\275d\nN=C:\214=*\035\022\275\000\333\313\275\352W\000=\014\226\204;\306\360,\275kV\036\275\206|\314=\361J\314=\211\216\271;\001\211\362<&3-\274\322_\212\275\371\215J\275\013v\266\275\240\210\252\275g\033\346=\353U\t\275\210S\311=\333\350f=\002\252o\275\256*o\275 \375\361<*1\273=\330\021r=\252\3677\275\305l\230=\201}f;|w\303\274{\342\230=\347,\242\275\360\213E\275\025\246\260=\364\230\301\275\000b\276=\027\277\275\273E\2218=n\267U\275\2138\221<\315\300\210\275\202>U;\"\020@=\371\214d\275\366X\272=~\275A\275\221w\023\273\330\204p=4\235\232;w\332t=\314\t\306=\027\032$\275\361\2124\273y\213\370\272lfQ\275\273\376\251=\344H\232\275\342\337Y=A/Y\275\336\335\270< $\005=]?\226\274\360\260\035\275~\005R=\000.\364<\031\021\237\275#T\231=:\036z=\027~/;\240\027\233\273dt0\275t\256M\275\351gi=\233A\225=b\227\'\274b\247\200\2757\264\230=\253\323a=\371e\246\275\260\250\227\275\013\247\307\274\365\350\215=\'\230\253<\177\330\026\275\305\273!\275e\334Z\2733\267Z=j0X\275\250\235\003:Y-\223<\321ga\275\325\333\304\275\202\034\207\275\251\221F\275]\225\372=\350u\254\275j8!=[.\212\275J\244n<B\215\037\275\232\274\025\275\353\221\256\275\327\212\341=\271\272\026\272\335\351\206\274g\346\000=n\210\366;\t\246\207\275\341\374Y\272\320+e=\243\205\356\274\376$\331=\370\322\032=\351}\201\275\372\2613\275\346\2156<B\305#=\211\251\315<=\216\274\275\264R^=W\205\372=N\253\345=PTk\275\201g\323\275M\214\265=|\245\361\275\0167\274\274\213\201\330<\346\324\243=o#+=\3654\316=r)\353\273aU\313=]\0205\275\324a\310=\030\205\310\273b\274L\276ymj=_?m9\336\306\001>\0232\245\274\026)==\036\354\263\275o\025\026=\236[\201\274\033\005\247\274\002\333\331=.\355\223\274\320\210C\275\245<\232=:z\203\274\361\021\344<\037\224>=\024\357\245\274\014\240\200=9\373\224;5V\370=0q\200=J)?=\247\325l\275p\334\214=X4\356\275AR\331<\206(\273=\240L\343=Q-\253=\355\356b=49\005=\257A\031=\320\267\307:LZ\211=5\275\224\275$\231B<{t\346=\333\316{=)&\376;pK\302\274\000\356o\272\264\336\232=\332\3350\275\365\375i<\204Q\236\275\267\361y\275\234VO\274m\232\274\274\"\263\230\275\275\247\325\274\200 \221=\234\343/=*\264*=\207\356=\274F2\271\275D\213\202=`F\354;B\224F<H\225\260\275\234\r`\275\300\241\224\274K\261\333<yA\306\274{\3058\275\032K\256\275\'\0040<\357`\264=\337\252*\274H\331\025=<\r\203<:\355\276\274Rt\002\275`@T\275\331\204}\274\367\337\214\275\330\335/=\235\304\014=\372\367P\275\255*\277\275\237\365\336<\311\2531=\240\312%\273\007\253;\272I\006\335<<\341\214\275\257\311_=\016\252\315<\257r$>\240\245V=Z\200\255=I\2142\275\372\312\013>\354\3156\275\301\327\317<\251\225\225\274%*\226=\004\251\231=\367\324Y=\033\337+\275\013\366\345\274\003,\232<\336\210\274\274\250gA\274\016\311\025\274\256\377\375\274J\3672;\327\266+=\354[\360\275{\227\325\275\337e\244<P\005\241\275%\2736=(\345\355\273\201.\317\274\324\251\204\275\342I\233\275\244[\272=\035\300\271<\303\022\025\274\221}I=\211\342\351\274\355=\244\275I\303\315=\261\237\016\275\177\310\210=4\360\032\275]\326\200=\365[\343\274\010\013*=\302(\333<k\031q\275\220\262`\275\255\3231=\010\320\314;\020\345o=O\026\224\275\021\304\371\274\237\252\305=|\'\216\275$\302v\274K\340\247\275\272\322\370\275\016\241\244\274#^\006=\240*\257\273zul=\310H\246=C\246\253\275@\260,=,\236\214=G\254C=4\2467=m\311l\274\251\311\005\274\250:\016>\353\251\214\274(k\034\275n<P=I\327\336<D<\014\275.\035\247\275\327\325\241\275\3307\337\274\304\340\224\275\371)\005\276\312\3340<y\264-\2752v\266<\340\3237\274\342\353\206<Y\247\230\275\241\375\217<I&\201\275\307x\267\275\302|\275\275R\202\206=\213\237<\275\374\206\206=}\351+\276h&\207\274\302h\353;p)\201<T\032\373\274\361{G\275?G\034\274\324=\002\275\237\0310=\327lT\274 \006\231\274\033\357\224=A\322\341<L\377\342<b\010\300=\025\3226=\374\344\333=\033\224\004\276z\3461\275v\240\245\275or\t\276\264\366\275<\251\327\245\273y\245\301\274\237*\017\275yM\211\274\010\020V=\345\243\016\275b\340\010=\373H\246\274.*\223=U\313p=b\203~=\010Le\274\360\223\'\275r\314,\274\242\245\010=\336(I\275\177:\230\275\014S\261\272\315\377\263\274o\273A\276W\264\214\272\327\3362\274I\241\312=\242\262r=JR\261\274\366\251\253\274\314\326r=\224n\342\275\372<\004=\212g\320<\336\374\207\275\341\344\310\275\313\311Y=U\035\200\275\014\241b\274\240\340g\275^9\030>q\017C=Q,?>\236\014\003>\374\337*=-=M\275\334B\313<\347\313\311\275^\206\322:\221\030\224=>\347\265\275o.\234\273?\211\377=\tp^=\'7U\275\037\221\260\275\353\'i=\266\244\234=E~\267<\255\344{\275gwX\275\206\344\273=;\265\022\2754\256:;\023\3608\276l\225\257<\262\3114\274\364\021\300\2757\222\314\275{hX=\306b\275=M\024\037\275&\300Z\275Q~\361=\363\245\262\2751\217|=O\022\331=\322\325\276;\037\213^\275\341\037\306=\005W\326\275\0206\016\275q\301\277\273\214T\213<Z_x;\2334\206\275\336\301\206\275y9\004\275p\343\014=\271\3177\275\027\341\304\274aE\250\272\247\3448=B\235\221\274\235Zl\275\036\302\351\274o?\201<C<l\275\013E`\275\032PE=+=\271;!-^\2753\260 \276\306\257\272<:\016\021>\336\331\025\274/\342\324<4,_=\036\243\2429\265~p;\372X\000\276\331\340\257\275.\342\305\274\356\367\222\275\373\305\210\275\336\341\247\275FeP=@\024\341\274\366\351\244=n$\312<\325\223\200\275~N\007\273\254K\307\275\010\211\221\275\374\301]\2758L\263\275\346\322\240<K\270\203=q+\231=\217\023K\275T<\325<\215\227\276<J\363\013>1)\310\275A\034\\=\306)\254=7\034\010<c\210\207<\251YS\275\206l\005;\252FQ\275\n\267\215\275\246\366\273=\nnw<i\356\265\274\266\250\003\275\t51=\035\340\226=\337\210^\275B\366K=H\272\017=\342\005\226\275\322\337\227=W+R;\023^\210\275i\037\256\274\256\255\230=\244\333\217=\327\272<\274\244~\273;+\245\277=Pi\037=\246\373\346<\377\316-=^\243\234\275\203\200D\275\235[<;\363:c=\301(Q;\344\246\245\275\366!\255\275M@\371\274\032r\021=9\003c=\231\272\310\275!=\242\275\027%\002>\211#>=\274\314%=D\222$\273.W\201=\364\257\000>\211C\233=\336\177Y\275N\367V\273\2738\r=\204L_\275\367F\320\274\227\004s=9\353\325=wx\312=\272\360\313\275w\\\207=\310\352&=j\357\317\272\337%\366\274(2\345<d|V<`\346\231=\223]\236\274\357\354\304<[\322\234<\016\036z=\325\tp<xb\334\272\274R\212\274y\t\033;XDl<\2358);E\324\232=\324\375\016=\264\212\327<\037\324\031\274\331\026\226\2744\270\306<>\372R\275E\231\356<\311\253\206\275\006\002\247<,b\257=\246\016\t=\033\323\022=\'\001\035\2743\"\263\275\001\250Y=\326\013\034\275L#\275\2741[\364<\253\302c=\374\351\023\275\353\0077\275,#\227\2755`\220=4\337%=\237H\000=\306\240A<\210\3572=i\332\r<+,p=\315\247\214\275\356\341\252\275\234\036{\275\t\0261\275\272\356\003\275+\264(\2755\226\t=\255p!\273\331\345\372<\014\254G=9}7\275rZ2=\261|\272;*\202\271=\014\313\023=\017\016\007>\205\3055=r\332\016=6/\303<J \"\275\220P\324<lp}\275\224\226\254\274\016\377\234<*\221\030=1\271\022=\240\214h\274K\225\262\275\001,\311=u\200\315=\217\217\235\275h(\211\273S\360Z=\201\266\026;\250Vo\275+Cn\275\366\335d<\024\313\343=\353*\317\2747\330t=\321\n\214=\244\253\305<\010?\000=\366`\001\276\251\340\353;\017\340\014\274\243\351p\272\362\003\005=\rF\377=\206U\225\273k\236\206\275\364\372\032=\362H\303\274\332<\374\273\234||<{`\035\274\322\200\000\276\207H\001\275\r\233o=PQ\030\275\242\031\201\275&\306o\275\255\331\255=H\267\017\275a9\001=\212\240\246=\014!\230\275CX\377\273\213\345\243;X\372[<8\301\023=\377\365(\275A\260\177=+\216\204<GO\037\273\027P\n=w\217\241\272\026\241\003>-\377\234=\316\3006\275^|\013\274z\317\266\274\336j5\274sE\347\273]\333\340<d]@\275\240]^\275v_`=\323\036\334;Z\210\002=&\335I=\221\352\341<;\263P=h\357\036\273\365\033\360<\036\005\t\274>sL<j9\371<h\223\031\276\260\005\340<\r\376\335\272c\370a<\216\236\222:\001\367\371<\224\244\032\275\004\362\266\2751wh\275\3373\243:\302P\\\275<\314\214\274\315\270\230=\316?\206=BZ\n=G[\234\275\220\220\207\2756\\:\275\026\202W=\377\224\213\275\327\377\250\275&\225\277=:\036\331<\272\336(=v\223\006=6\322\247=*\007T=gVZ\274\t\252\006\274\245\310\361<\\\242\261\275\253\326\260=P+C<\275\357g\275\363E>\274\357\337\226\275\371\264\267\2755\376G=\362.\257=E\374%\2751\314\242\274\240\234\010>\364\377\373\274\201\357\036=6=\211<F\\\325<\340\236\260\274W|l=\025\256\202=Q\r\026=\2042)\275\365\302\317<\341\r!=E\212S\275\321\027J\276\230\355o=\345\370\377=Rx\237\275\347\256\244\275\351u\325:WQ\235=\036\251\261=vrP\274/\337*>>\021\014>\275\254\243=+\247\027<vc\260<J\261\311;\025\324\335\274ZR\203\275y\246M\274U\334\243\275(n\376=\261\n\273\274$\262\232=\241*\027\275\300\222\277\275\022\344_\275;Z\376\273-?)\275\001\177u\273\023d\301\275\254\365)\275\256\336\377\274\200\261*=\221\264\032\275}\351\227\275\3421\223=\344#\302\274q\367\221\275\266\n\371\274t\367\237=\344m\330\274J\314\354;\246\271W\275\243\263\324=\177`\260\275\205\330\351<C\000w=\372)\204\275\030m[=\026\251_\274{\r(\275\247\271\274\274\361\212?\275\360\256\351=I7\014;\252\257\307\275+>\373\274\203o7\275Z\333\233\275!\343\204<\013\216\234\275p\311\227\2750\362\324;\001B\217=\221g\014=\243\205\202\275m\2523\275\003o\323\275U\376\366=#\355\345<jr(\2760J\315\275K\315\024\276[\231\365\274\317\302%>W\314s\275\371:\264\275\237\005\364=\344\252\203=\262\314p\273B\371\313\275\355\210\000\273\351I\017=\203?\203\275\327\021\375=\000\323\276\275\341\224W\275R{\217=A\342\004=\337\257\237\275x\034\013=T\204\347< \010\372;\252\257\251\272$\\\302<\201r`=\030\300R\274\225G\n\275\353p\317\274\334s\300\275z5\250=\033{g\274\2343\361=\242H\223\275=d\221=\305U\320\274\3238\263=\336rG=\3753\016=\332\200\007=4\2310=\004\312\304;\323\327m<\371\241\035>\271g\242=\246\371/>\004{\377=\233#O=@\344\026<$\036+\274A\332\020=\341\315\237=\375\232\276=\'\305\317=X\341O\275\334\215\242:\346\357\265\2756\037\364<\217jo\275\217\001.>\327\017\312=\037\010\023>\000\252;\276\216\302\222\275\346\314\352\275\006BA=\225\207\014>oT\303\274\355\202\314=\336\233\226\273W\376\357<\370+*=#\351\250\274\230\356\260\274Vd\305<\254\016\016\276MXX=\177t\260=\312\337\004\271\200\202\261=8\313r\275_\275l=\222\n\007\276\225\373\025\275\365L\224;r\3126=\266\241P=\\2\016=1?<=B^(>\037\271\363\275\322\232\036\275\\\306\325\275w~[=t\244\203=7\233\275<F?\t\276\356\301]\275\373?T<S\033\361=\315s\201;\2208H\275\332\341\036\276\023\032\224=@\204>\274y\006\251=\346.J=2W\306=\301F\010\274x\310h=U\205\371<\335\270\205=(\264\322\274\360\326\240\274=\027\004=o\313\026<S\022:\275\353\021Z\275\213\037\270<YU+;X~\221\275\305\004\313< \240\305\275\021p\217\275I\220!>\212\250\356:nae\274\301\027\333=\230\007F\276\343\325\215\274\250\242!\276v\371F\276U`>\274\363O\202\275V\242\204=\024\334\257\275\276\230\251=\231\010\225=\230\235#>\023\301w\275\246}\215\275FA\366\275!\013(\276qA\t\274\364qr\275\2008\250;\222\357s=\277\310\212\275\365p\035>r\234B\275\310\363\305\2734\303\005<6\354\254\275H\033\007>$W\031>\002\365\310\275\244\225\032=\036y\037=j\302?\276jl\006\275!S\376\274\3319\356\272B\022\350=hs\213=#\016\343\275^\t\335<#N\320=\014\361\326=\244`\357=\"\277\014<q\365\201=\004\304\260=<N\006\274\202&\300=\356\013\224<^\360\251\274\347\332\027\274Y0\222<\022\260N\275@Y\000\275\255\320\034;\337J\220\27455\227=\236\033\372\274\272\342\002=?\250r=\361\220\331=\031\263\262\274\361F\242=\3535\033\275yll\274^\321l=R\304\301\275U2\273=\017\212\302=\242\207\260=\277\234\273\275E{\014\275\360s\256=\366\274<\274\037T\347<\305\377\261=\365\372N=\331\033\304\274Ue\313=\013\2128<\275\206\372\274\270\037\301<u\325\347\275\312\r\030\275\312\014\353\274\' \343=\344\022$\274T_\010>Z8H<\'\205\317<aV\022>\370\241#\275\355\216\310\275P\2619\2753\365\251<\336\002f=:\201\002=Q\304\233<\330\031\217\275\353\347\272=\014a\262<\376,t=\215\262\264\275\2329\332\274YL\264\274\017o\006;8(\373\274\272\310\326\275Q\345-\275\264W\000\275 \0168\275d\t\020\276\203q\233\274\223\224\266=\352wq\275\247a \275\241\307\255\275\371\350\333\274\031!\217=\250\364\356<\335\014!\275\023LS=\027\353\004\275\260[\364<\3116L=\267\250\033=/#e\275\245\205\000<\2505\242\275\236\301\230\275\225\342\251\275\276\260\226\274\266\371\234\272U\226\354\274{\371C;\354I\214\275\033\013\377\275$#%>g\320\030=\004\347\r\274\r\021\232\2753\236.=\324\242\016\275q\231\000>\"g\235\275\337\373\017=\304\346\203<1\234\002=~\200\331\275ZBz<\230ns<\354\327\013>\025\300\255=4%\357<\021v\032=b\306\301<\304\204a=i\356\314\275\345\252\007\274\235\255\315\274\354yA=\214g\037>\343\0211>_\314,\274\'\370u=\006\260h=S}s\275s[\245=\341\222\232\275\325i\221\275\"\274\361=\036\037\013>JV\244\2754\324\303=]H\333\275\003\216B=\213K\001\275#k\"\276\324}\001>s\321N=\237\234\021>C\3466>Cr\'>\273\002\034\275\226\345\354=)f\200<\t\265?=/M\262=\r\371P<{\tC\275tD<\274H=\276=4\246\216=\332\347\260\275\323\315\006\276\253x\n>L\350\r\276\032V*>\303}S<a\355<=\265<3\275\025\226\346\272\345\301\214\275\345)\003\275\321\235e=\272Q2>\021\255\234=\325]\250=\205\357\347\274\326j\322= \350\016>\352\372\357=9\344D=\260kg=\225\347e=\035\236\023<\307!\247\274\275.X=\305\223\332\273j\0326\274\274J\262\275?\0256=\\s\001\276\356\321u<&V\303<\346rj\2742V$\275[U+<\360\340\262\275d\244\017\276\310\226G\275\\\301C\276\313\006\307\274\020\246:>\205\023\260\275}k\203\274y\232\014\276\344!\032\275F\324u\272>&X\275\244\231\031\276\260a!;\217B\353\274\217\035G=i\355n\275N\243$=\345#4\275\365\314\003=\304\010\204<:q\341\275|\000\031\275s\247\225\274\204\241\326\275]A\021\276\026\nN<\364\254T>\325\300Y\2750Dp>iTz\275\342\227.\275\035\205\333<Yb\203=RBH<\271\230\210=f\342;\275\224\366\001>\225t\261=O\274\023=K\361\327\275^e&=j\337\365=\361\210\\\275\333\233\272=\000\202N\273V\374\310<\222M\244=Uk\313=\000X\352\275n\\\266<d\274\236\275}\360\345\275p.Y=B\260\256\274\2438;\275\r\000)>\253\236\201\275\242y\256=o\353\362<i\314E\275\373\262\260\275H\032\256<\205\323@\275\333>\350=J)\231=\0258(>\372\335\017=\262\353a\275Qw\">\212\275_\275\206\265K<\313\t\254\275\022\240\203\275a\323r\275\222\372\362\274\025\222m;\001G\200=\302\261\323=w\240\017\276\020\016\220\275+\247\306\275\371\212.\276\326\205\234\275\022#\254=\004\215\251\275\271\227\232;\201\211\245=5\250\235=0\232\271\275\353 \255\275BW1\276\210U\250\275\277\177\024<\275\031\316<\315X\001>\204\025\223=\240\301\372\275\262\377\r\276\004\000 =\252I\352\275=)\302=\216\235?=K\024\376\275\264\022h=<\312D\272\007\265\020\275\331\020\212\2754(x\274\023\250\270=\342Y\370\274\334Ru\275\256\353\227<\025\272\251<\025\020\240<\337\315\345=4\204\024\275Z\t^\275\205lW=%\322\305<\243`\217\275ye|\274\007\2267\275\316\247\302\275|\374\266=\200\200 =\211\230\326\274;\2378\276\300\275s\275\324\254\336<\030\321\242=\323\273\375\273\310\344K\274\206:\213=\265\362e\275\221|\240\274\t\255\201\275\037\346\241=3\243\250\275=\3326=\316CA=&<K\275\353\245\013>$y\377<\3506\306<\000\231\341<\254\355X=xu\020\276\236\365D=i:$<\341\374\t\275\375M\261\275\004\343\306<\016\231n=\202\256\000<|b\214:I|\344\274\033\376C\275\364G\'=\2414W\275\2643A=x\274e=\353\000\225<\270\017\332<\235WR\275\301\035]\275\372\245t\273)\300\302\275\205\364\273=\247\020j\275I\372D\275\004\261\305\275\307K\334;>`\214\275\005\206\225=\2701\252\275\\\340\241=\216\343\231=\026.\272\273\222\377l\275\030xl=\013\250\010=\326\034\376=\314\374\217\273Sx\245\275\371P\020\275x;\252\273\200m\237<\360\034U\276\032O\014=q\304[\274\217l3\274\232z\251<\003>\344={\325\236<\364\335\224\274c\305e=\251\260\031<\010\320\342=Xf\270\274\036\274P\274;5\271\274$\004B\2768x\306\275\332\3046\274L\206\374<e\262\243<\312\204\306=L\244\271=\206\344\206=\354\262\333\274\232\272\031\276\252t\226\275m:\256=N\035^<]|\010\275\214\246d\275\334\275\034\275\200\327\263=\344\372\241\275\261!\314=\220+B=8[\365<\2544\301\275KU\235=\232;H\275u\370\214<;`\307:\220Y\014=\374\363\200\274\314;\216=H.P=\2003\037\275\201\246\352\275Y$\177=\355\357\240\275\274!\250<\3703\324<\231\275\200=\271\364y=9\274\304<3b9\275\003\024\032\275\010G\033\275-\230\033=\261J\207=\317o<\275<0\330\275\377\3077\275<\254\221;VP\304<\376\225\323\274\023o\355\274\333n\013=\273\352M<\316^\033\275Y\021a=\340!\375\274\177%\253\275\010DD=t\235?=\022\307\237=\373tX\275r\204\030=\244\033\362<\002\216\206=\374E\263\275\375\322\363\275\366\346)\275*\\\021=\275\212W\275\223\271\273\274\340a\342\274\231\001\215=\005p\037=<=R<\301\202\202=\335#\'=r&\201\275{\314\220<\224|\325\273L\320\256<E\371\017\275\010Y\033=\322\0351\275:\204\355;%h9\275*c\035\275\313\210\211\275-\230\252=\270\342\025\2762\373a\273WX\365=t*h\275\352\274Z\274Qd\214\274pa\033>\352\304\027<\031T\036=r\0204<!\266*\275WOH\275L\"\310\274_\352\330=e\232+\275F\205\023>\026\347\361\275\344\240\202\275\340\361@=\211 \341\275\340\205\304;OwY\275\366U+\274\222\342\004\276\3042\314\273\2228,<\261r\232\275\212\r\r:Ix\211\275\225?\214\275<4\246\275\350\236\026>\016\205)>tfR<\037=#>\367\200\355<\245K\300\275\224\023\335=\370N\272=Z\014\261=\375<\234\273\034\230\353=\022a\207=\005\037\320=\373\363\014=\251\224\343=\346<\211<\230i\277\275\222\320\354<\022\271\264==\201\201\275\255\315j=\265\312\266\274\366\363\214<w\341\273<\030P\013=\233\337\272=+R.\274<\340\230=.\0326\276\027\204\211=\204\257\305\274%}\216=-\301\301\274\036m\031\275\273z\322=;\335\335\274;[y\275Bi5\275\371O\246=\306\357\036=\225K<>4\303X<\020\224`=CI\276\275\255\022\311=,\367\004>R\377\201\274hF\354=&>\213\274vj\333=Wk\334<\345\324\306=\0322\277\274p\270\017\275r\354\035=s\205\'\276\346\315\273=\277G\024>:7\227\274\362\244T\275\301m\233<%g\252\274,\301\242<\366\364!\275\037\233\003>\367\356,\275\010\221\271<,8\306\274X\226\212\273\247+\367\273\3051\327=\242\353\254<\353\237\021\2753\375\t>7\330\221\275\243O\002\276\351\363\240;\323\034-=\335Q\342=\\/\016=]\017y=*k\026>ms\363\272\3273\021\275\263*o\275\004\020!=\036\001\271\275:?\342\275l\241\256<.!&>\3556\200;\251\225\022=\374k#\275`h(=;/\376\272c|\375\274O\265\034>\274\220\033\275]\230(\276VFp=\301b%>f\036\037>\362\260\311\275\333\371\374\275\304\006\030\276L\311\211\2750\305|=7v\214\274rt\215=\222\016\035>\372\246\302<\217\253\211=\302\037\325=\232\251\260\275\204>,=\274}\022=\274EE\274\332o\377\275\372\364\206=\246\361\215=\362\3014=\266\346\324\275+\024F<\315\010\306\272\211\344\254=\004A\330\274\312\201o;A\232\231=\277\214V=g\257\262<Y\320\270\275\315;\266<d\227\020\276\304\202\305\274\215\364\345\275?\024\341\275\234\024\365<\361w:<\232fh=\265\212\237=\204\254\014>d3~=\264\3341>\365\332\014=\342`\034\276*;\265=B%\032<\021\330\307=\\\t\263\275P\233!=Y\324\\\275\177\350\030\2751\270\331\275%\311\250\2753\227^\276qZ\203\273gz\361<\257\253%\275\271\017\363\275\224\267\212\275\014\252e=\226\021\221\275G\345\243\275\036CE\275\177R\267=\300\361\271\274\203h\007=\371\352\r=c\357\233\274\367=\313\275\340\037\374\275c\324f=\202U\035=\256\035b=Ul\312\274\222\204\016>p\246\255\274\347\214\244\274W\375c=X\233S<r\257`=ra\336\275\336N\311<RyJ\275\336W\205=\265\200|\275\264\256\252=o\266u\275-\200|=}8\367\274J\266\226<\207\334Q=tB\305;\364\003\035\275\236\265\354=\037\013\027\275\354}5\275c\237\272\2754\273\235=\362\376q;=p\340\275\321\3261\275j\3044>6\370\313=\020\013\216<\2470j=\211*\302\274\317\257N\276\253\t\237>\010\245\211=]\216 \275*\215N>dm\027\276\320\204\003\276O1\206\275P\306 \274\3563\335=\347\007\007\276\310\213\037\275\014\334F=\242\344\205>\302\245\223\276\344z\202\276\240Dl\274|\320\340=7Pq>\200d\351\274&Q*\275A?\'=Mv\370\275\2003\310\274+\007\033\275\236D\202\276\322\005\313=\365\346\024\274Q\333\t\276\3142\202>A\253\333\275\244\203\222>n{/\276\243\263%\275\270;\275=~\367\223=\314P\376\274n\354\363<\357\207\263\273\252\222\327>\210\314\377=<yT\276\0047-\276\323\246\217=\343\001\300<\356\017\257\276\016\036\266\274\3311\">\255\272\006=\327lv\276\366\r\202=0\023`>v\225\254\275\325\315\031\276#\212\020=\241\217\275\2769\'\206\275@\263\202\2752hf>\270\213\220\275r\006\323\274d\225\340<\023\024S<\331\001x\275\030\345\345<\034Y&>\232\204\335<\247\363\216=\304\276]=\340\032a>Yp\017=b\226\215\276\216*\254<\0021\037>\027\311\203=]8\236=\003\334L\276Z\221\021>G\253\004>\030\302\210=EP\024\275\256\356x\275q\352\206=q\301\345\275Q;\206>$\030\014\276Z\352\202\276\265\301x;\366\272K=\337Y8>n\324\211>\373\272m\273\nz\276=\245^\260=\313\344\240>\343\351\217\275\ti\222>\013\300D\271\030\302\213=\226\251\337\276\254G$\276\037\364B<\031\302N;k\363\202\275pC\324<\021\026\264\275\3457\215>\217\360%\276\205\223*\276\251K`>\316\206\016\275?H9>DjZ\275\351\331g\275:\322\372\274\001\t-\276\000SC\276\003\312\257\275f\233%=\231\t\206\276\232\344\r=\332=\307\274i\207k\275\371\270\312<\310\365\202=}\026q=\210\030\014=\237\034\273\275Q\330G=P\251\235=?\213m\275\217[\240\275vo\274\273\207\027I\275[\002\030=\313A\013=(bl\2757\256\264;\242\257\004>\'\310\363;\373\014\204\274\023\377K\275\316\257#\274T\220\255\274\3403\337=\nF\242=\225\tV=\351\307V\275N:\352\275o%\034;22\314\275\340\007\275=\262\317\032=\225\3458\275[\206L\276\026\333\257=#\307\t\274\245\001\014\273\320\235\352=\355X\214=l\341M<\n\373\301\274\324v\215=,\371*\275F\353E=\036\244\217=\000\255Y\274\202\256\007=\327\377\034\276\231\271\225\274\231\3145=\354-\353\274I\007\211=\306\375-\275\242l,\275m\323!\276\344\274\004=\242q\266\274\276@p=\210\322\323\275\335\366\322=\343\n\347\275\\M1=S\324\217=\232E\243<8\000\350\274\347\232S\275\236\233\036\275\215\222\213\2757\177\225=J\256P\275\020+\216=\244_\253\2758$\227\275I\324\303\274\331i\234=\246\013\200<^\300\205\275\325\220\034=%U\200\2754\305\261<\014\261\223=\326]\243=\254\310$=\220\267m<\306\260%=\277\352\234\275\365\013m=\264\266s=\274\">\275Z|S\275\244\001\037\273\014\203}\274\321\016\330=\340{\371;\1771z\2752\2541\273\351\273\204\275x\366\274\275\003\202\263\275\220\322n\275Z\271!\275\333\353#\275~\334\366\275Nb\241\275\261uf=\017\271\214=f|\022=@4_=c\311\037=\252p\010\276\342\357\240=Z\265\316\274\216\016\307\274\254\003V\275Z\245S=2w\274\274\003\360\265<\375\024}\275iz\241\275\302\267\231\275q\233H\274-\241\257\274>yk<b\007\033\275\035\202\\=\327\270a;\331\036\213\275\221\223\261<\332\267\247<0\210M\275\031\375K;\242#\243\275\020\245K<\272>\236<\366\320\004\276\027^\013\275\311\254c<U3\034=\021\363\356\274t\225\n\275I\241\302=\236\367\311\274}\001m=\3037w=3\256.=\371\247\334\274o\321\256\275\351\317\332\273,a/<s\343\244=P\2535\275\376\230\372:K\000\206\275\342rC\276{\323\261\275V\223\254;\372\300\363\274\\\264\362<\363\322\224<Ew\r=\362\300\373<w\323.\272\220\375\032\276_\313\303\274\325\026\236\274\005X\t=|{\2379V\t\367\275\361\037\366;\221;\r=n\272\246\275\362\264\266\274E\335\374\271i.\240=\265\201\224\275\210\007\304=-\227\256\275\240\000m\275\206h \275\033k\323\2742<I<\353\366X=\355[\335\274\3122\t\275\320\327\245\275\355\0304\275\037\214\261;\224\335$\275\031\006\371=\230\\[=\014\227\367<\273<\203\274\032\331\234\274\337\310X\275\260M\202;\240\225\232\274\371I\234\275\354\023$\274\200 \374\275Tp\367\274\376\036d\275\242\303\257\274_\3275=L\257\224=-\225x;\0014\310=\356\366\016=WS\216\275\367D\371\274\027 \366\275\033<\220=-9\254;\\s\313\274\242\236\217<\324\r\307;yh\356=\330\223}=\351\222\242\275\313\246\004\275l\256\355<\241\037)\275s*\020<\247`\365\275\306\271\277\274\233mw\275\274\\M\274\220\220\315\274\352\244\001\275/\022\307\274[\000E\276\2245\233\275N\237U<N\035\325<\325\\\230\275:\330\013=\\H\273<\022\265\030<\200eA<\223\326\357\274\255\271\362<D{><\"\021]<\243\256\204\275\264\371\300=e\264\353=\340Vg<\371w\005\275\365\266\033\274\276\245\347\274\313\013\237\275r|*=\312\357\246\2742SN\275KK\341=8=A<\217\346m9\241\347c\275\346\222\327;b@<=2z:\276\206\345\324\274\271\237\377;0\324\217\275\003\326\206=\t\010n=\274\177\224=\327\2773\274\025\327\220=\312\332\356\2755\253c:\232\270\271=\002\177\031\273\341\374\311\275\004\035\232\276\373\220j=\337*m=\222\270\003\275K\357\216<\243E\321;N{\303\273\214Y\\\274\310\006\t>\221\352L\276\002\014\240\274\020g\356\274:\316\302=\241b\333<-\254\003\276`\376\246\272\213S\270=\r\313\320<\275\302\332=Y\232\242=%\315\261\272>\201\000\276Z\336\213\272\313R\224\275l&\036\275\214k\022=\261_\341=\243\3301<l\252\226\274v\371\204\275\304O)\274#9\315<\352(\200;\260\206\234\275E\265\254<%\022\217\274\016:\250\274D\206\003=,&\221\275\t\263\317<\302\002]=4\234\376\274\006\342\204=O;L=\325_\245\274\3057\003\274\031\361\247;\036\233\230\275\371\r\245\274\376\005A=XF\372\275\031\344\230=\256\\\212=n^\220\275\300\333\325\274\376\375L\2752\276$<\240\251*\275M\030\211=\037|(=\330\267\017\2751\024\244<f\252\223=\352\313\235\275\335\247]\275\355JU\275\364^\347<V\351\230=\241\335f\274c\340\373;\016u\220\275\206WV\275$-1\275\312~\316<\023\010S\275Bn\302<6\321\204\275\002\350\206=\233\342?\275\366\335\315;\306\0232\274\265\305\214=f\262\254=\267\0236\275\005\003\207\275\346&\t\275f\352\237\276\312\360\212>\247re=\304,[>\266\036\024>\366&\013\276\023\005\247\275U\030L\276\214\355\251=\273\377\210=4\223Y\275\200\025\257\275\022)*\275lu >so7\276|\017\203\274I*\023\275\272p\254<\261\3020\275\t+(\276b\000C>\316\300\253=8$\243\274\267x\227\274>\254\262\275\2336\207\276WUv=E\245f=9m\205\276\350\371\265=\273\021l\275\333\314\203=\373 \177\275\333\314\247=\302\2526>U\211\263=\377\335\274=z\003\010>\251\206,\276,\206\'>C\031\316=HHx=dtG\276ZpN>P\324`\275&MW\276\004H\323\275O\300\305=)\265\321=\250[\233\276\305\256\257=d\014z>w\242\020\276\275\024\r\276\241\314\010\275\362\203\205\2762\267K<\204N\227<\267\010\325=\3364\363<\010\261\022\275\007\016\031\275\223\000\010:\010\242\247\275\355\'0=\025\227\010>\227\035\032>\222\034z=r\351\221=f\353\203=\271\242\346\274=\235\347\275uz9=\327\207b>S\255\030\275\2700\023>\375\357}\276S\200\326=\217\001<>\233~\361=\031\351\016>\317|\313<\"#6>\004\032\210=\211\206}>\rN\264\275\354\321v\276!\262B=\264\025\334\275s\3702>$\303\301>\220\352\232:\222\330s\275\271Q\274\273Nh\002>\241\332\231\274\340j8>G\271\242=\247m\026=\364!h\276\0323\273\275\211\307\313\275o\335\214=\357\252\247=3b\037=\"3\'\275\2121\014>L\355\213\275\216}N\276\306n\315=\331\203\307=\306\317\220=\342]\030\275yJ\301\275\256\211\\=\226\214\265\275\272\332=\276s:s\275\305\016\034=4\022\207\276\321\013R=+\210\001>\345+\300\276H\024\202\275I\253D>\201\223J>\322\260x\275\300\354J\276;\271\251=\350g\254=)\223[=#:\002\276\223a\004=z\177\360\275\204\273\003;r\242\004>8<O\274b\223R>\345\3052\275\266{\366:\004b\027\274\"q%\275<\037\370=I\276\310\273)p\034>P\364\035=cZ\231<\2648\223\272(}6\275\025\205\344\275\213L\250\272\264\301q\273\204\207\340<\316\320*>\356\003\r;\234\t\035\276\342yE>*\312\356\275(\346\010\276\247\372Z>\n\217n\276\312(\215>\264\204\315=\306>\010>\362\305\323<\334%\203>\201\276~<\246\273\364\275\'\366\321=\217\3351<\305\350\272<\324<\355\274\205\021\027=\207\270\005>,\372\340\274\257\352\024\276.\267\331\275\"\267\017>\244\257\031>\337\013`=!\345\003>\337\000\260\275\261\312\304\274A\327\260\273J\222K=\254f!=4\230\014\276\364\252[>\375\336b=,\333\007\276T%\272:\220\3534>\300\367u\275[\321V\275\376\236\205\275\343\361\277=\272V\270\274\334\275\031\274%\317\227\275\026jV\276\222\310\351<8\251\241\275 \237^<-\221\006>g\363\017\276\217\010\">\311\322(\276\262\222\023\275J\r\373\275C\301\373\275\006\237\320=\331\325`;`s\001\276\000\266;\273\022\326\240\274\372\353*=\252w\005\276U\026\016\276\024\0006=h4\224\275 \365\036\276$O<=\307\320\361\274\343\227\316\275]\331}\275\274\263<\275\271\313\367\274\2135k\275+\221\373\275^@?=\273}\007>X\177|=,\332\307==J_>\272\230o>P/\240=X\240\371\275\353R\210\275\254\353\025\274^\306\t=\021\030[\275\216 \266\275\250[3=\016\341@\276a~?9*\236j=\244\227(\274\034\307\364=\227\361\316\275\"\200\356=v\361\255\275\221\227Y=-\r\207=b\341&>\316\002\341=T\253\321=^\325\206\275\252\354\024\275\253\341\345\274Z}C9$u\323\275\241:\226\274\263~\230=:\325\201\275;\225\226=KD\364=y\337O<U:\023\275\177\217\215=c@V\275H$5\275\205\262\016>\003\316\203>;\320\031=\374\317\206\274b\376x=\333\346\033\275\'\372\"\275\177q\376;\215\007\'\275\226O\026\276$\205$<\312U\221=\346\220\226\275\276#Z\273\021\211\376\275\027\3203\276\260\233\370\274\013\312Z\275\325 \022>\201k\343=\r\017\002>\367\350[>8\254\214=\216\031Z={ZF=\207t\032\276y\214Q\276\227\226(\275\203\223o<\274\3256\275\241\325\314\274\032k\361\274\371/\375\274\001\327K=o\301\326\274c6w\275\206\250\016\276#\311L<\342:o=\213\271j\275\200\\\340\273`\336\360\274\306\355\221<6\t\303\272\035>Z\275\255\334\262\273:\350y=k\321\262\275$\223\262=\350\036k\275\361\357\221=\312\307\277\2756%\211\276\312\240\010\276\332D\355=\254-_\275\032\356\220\275\017w\370=\334G:\273h\200\247\275B\036\225\275C\256\031\273N :\275\307N&\276d\231I\275t\327D\275\020\223\245\275\376\231\330\272/\354\016>\377\253\t\276\007\331\231=\252!\202\275\266\023\213\275py6=\026\272\357\274|\333s;h\377\264>M\271\217=\255lI>r\372\">\037\212R>\245\330\232\274\006\262 =6(\\\275\237\233?=AX\225=\220\262\301\273$\232\353\273\343\023\323<TU\243\273\353\376^\275}\215\217\272\241\376\013\276\356\371V=?%9<-\003\"\274r\031n\275E\223\214<\215\331\014>\313\242\314\275\355\263\277\275.\264L<\256+I\274\334\231\313=cXD\275\230R\303\275en\361\275\036\020\341<~\303\023\275\213\273+\276N\256\013\275\013#\373\274\350\376\242\274\213\212\260\274T1Y=\347\350\363=\213\201\304\275Y\034&\275\202\002\001\276fB\266<EG0>C\200\252\275\367\005y\273\371\226\223\276\371\007\242\275,Ac=0\337h\274\255`.=\262\305\351=s+\355\274\323\205\231\275\r\025\331=BO~\275\241\232\034:\324\336\n=\350\002\017\274\354g\373\275\204\253\273\275\226\267\233;\353c\230=|b==w+\335=?7\267\2748/\002\274Q*\006\276\375\2263\275n\331\263\274\0322\341=~\202\226\275\270\'\200=\010s\362\274\242\265\374<O\325\246\274*\365J=\'\211\023\275Y\010\321\275pu\203;j\033\226\2757\034\347;\311\257R\274AD-\274\202;]\273\361@!<V\324\311<\254v\221=O\374\231<\022:r=\223\024\212\275\347\335\346\275\355\351\254\274O\364k\275\323@\003\276\213\261\027\276\310\355\032\274\324\332\371\274\326\232\010\276\372\354\204\275\275\213#=\024\252\353<\263*\215\274\"\3561\274v\265\212\273\350\251\026>\343\247\005\276\216\304 =\241d\321\275|\021\207\275\341\016!\275\331\022D={\2310\275\365p\211=\366\200\321\274\245\263g\276v`d=^\355G=<\335\301\274\252)\200\273\317,\202\275\220qW=\236\261\007\276\251\000M>\r\254!\274\324N\262;A\374\226\275\262,n=)>\203=\300\000\317<\335\254 \275\270\335D\274\325\'\301=\272l\025=}>\344\275\235;\005=\025\222\007=5\374\267=\"\371\030>H\277\372\273\014!\002\275\252\271|=7\014\257\275;Q9:\300\026\262=\334-#\275\366k\016>\337\311l\274\025q\301\274eVG>\352\024\205=\211\\\031>f18\276b\004.\275\021\231\274\275\243x\242\275C\310J>\344\262/>\365\267)\275u\217\373\274\031\225\340=\227r\225\274d\314I\275\n_3\275\320\010\300=&\200\260\275\n\346\257\276\275\320\220\275\372\377\276;\211Sp<\260H\205=\316\252\007>\247\246X\276\253zO\274\361\331\240\274\233\351\200=o,\353\273\307Ib>%.\300\273\333\034M=\313\003\271\275<y\013<\374/\005=a\304\212\275\257O\"=\216\242\361=\304 \201\275c.*\276\260\277\246\273\376\306]=\343\370\321<\240O\016\275\332^\200\275\224~l=\244\027\254<]\tB\274\303gm\275\200\205\225=\3645\303\275\315\037\313<\014\255\261\2740\367\226<\323\307,==\304T=\n\355g\275<\256G\276\376}t\275f\250\033\276U\221\224=l\265\323\275\2165\227\275O1G\276\374\314*=*\317\003\274c/?\275\016\346\350=\367\3249\276\334\314\035>\007l\365\275\251\020\233\274\277C\220\275q@\357\275bF\343\275\311\234\264\275]\337\375\274\036\371\020\276\010Y\030\276\213\016\210=\354\213\243\275\346\254\016\276\035\217\002\275\271ew\275\024\211Z\275\304\235\322=\256fq\275N\000\263\275\212m=\274\270\261\243\274\374\342\272=F\033\372\273\010\261S\275\035\264\274=h\314\350\2751e\225<\215\240g>\336\027\372<\376\022\347;o\"\200\274-\267\002\275o\362\226=vcE=\035A*>\364\033\033=\366\242\224\275_\375\233\275\342X\272=c\033%\276.\307.<pbT\275z\334\014<\306^==\212\333\303\275\204X\000=\271e\004=\246\021H=\266\262\271\275G\017H=\010\3474\272\241\351\274=_\327(=_\366\">\312-\241=\'\301w\275C\322w\275\203\375\310<%\035\235;Z]\007=B\035\310:\241\355\005;mG\243\275\327\343]<D\245\336\274\255\216 >\017\330\006\276\"o\224\275\270p\365:N\267\360\275<hj\275\220\313h=\"\347$\274\335.\004=\274NX=j\021\205\275\374\006Y\275\313H\350;\274\246\254\274\207\204\315\274\251q\246=\365\347\243\275\255\374\021<\352W\232\275\230\210\335\274\222q\264\275Ie\264\275Qh\005=<\020A=\030\230\360=\261\223E\275\344\0022=H|\007>\327\211\330\275o\307\266\275\016\323\245\275x\331\007>\346@\204=\231\312\267\275\207\2351<+i\022>G\355\202\275\'!\354=\204\232\231\275\220\312\032=hDL\275\226\025\243\274;\034\237\274\212k\024\276o\027\322\274\220@\342\274\234\312\027>\342\274\003<\003B7\275\234:\266\275_\245\005\276\371\377\002\275\3076H\275\373\205+=\002\277\357<\225j\242=\317\032\232<\372\220D=\222\346\250\274\252\032\232\275fj\303\275p\224S\275|!\213=d\360\351\274\236+m\275\236\327p\274\365\002;=\300\357f\273\021}\201\275\201\017\r;\305\330\355=\0236\220\274\010u\227\275\235<\213\272\331\017\373\273{A*=\220\t\230=\324\014}\275\335\313q= `\354:\257\020\271=)\210z\276\033\206=\275\261n\313=\316\272\031>M\322\t>3\326h\275\334\255\033=\335\331_\275\233\307\006\275\323\245V\275\213\250\377=k\324\014\276\345z\271\274\032\022\217\274t\260\320\273\032\013\220\275\312\221\267\275^*Z>\203\274\247\275\001\324\235\274\231\2150\273C}\273=\372\346L\275oN\320\275\021[\355<\314\2378=\020\356\r>\236\327x=%\234\024\275d\327^\275\222_\326\274)5\227\275\361\211\324\274\356/\021\275\256\3370\276>c\366=\243\020m=~\304P\276\312\"\262=\230\257\215=\373[U\275\315\261\357<\363F\357<z\025\243\276\023\351\230\275\364^\264<\260\007_=\272\240K\275\013\001J>\020t@\275\210\235\300\2748<\336\274\t\356\030=\n\304q=^\244\316\275\3417\">\302\250\004>\021\257\251<\013\365\260\275&\231\227<\225\010\005\275je3\275\266\010\337\275>}\017\275\224\021,\276\260\344\262\275\030\300$>\033\357G\274\252\327\304\274\225\370\206\273\227\3368\274\266\215\355<\214wN;\020\270\243\275\343\341\314<c\033\'=\307\235\220=E\244\300\273\016\3612>\314\024g<sB\315<\017\367b\275\267\305L\272W\347\202=x:\332=W\326E\275\'\234!\275u\255\031>\034^\256\276\323\215\314\274\234WN\275\245\354\221=\363\025C\275\013\027#>0U\216\275\346\t\230\276\032 \220=\351\265R\275\034\0076=-\006}<\224\216$<\360\250z\275\037\'\007\275u\023\331=\364\374%=9\014\3479\255K\217=\335\247v\275S\311\314\276\027\377\254=\311\336\246\274%\202\031=\275f\275\275<\326\365\2736[w\275\364\250S>\021\376\004\276c\225\210\274\231\351\264=\231}T\276\005\341\031=D&\226\274V\273\204=\234\033P\275?\010\205\274\000K\345\275\375\322A\275@w\"\275+\213P\276q\255\036<\221\252\357\275\256\006\t\275\3051\201\275xta\275l \235\275L\310\274<G\016\342\275\307\233\276=7\353\255\275\002\216\345\274\327\007\003\275E\357\226=E\3711=!A\277\274\034Lq\275\223\211Z<\333\035\241\273U\305\320=\224x\252=.\t\253\275\021aL=\236\215\365\272\202\321\204\274GCT\275j\230\027\275n\253w=\3271\004\275\273\376\337\275\315\265\030\274Kd\335;vQ\203\275JV\316;Xc\371\274\320\2464\2763A\272\2757\225\344=>\263.<\273\207\266=\213H\236=\304\332\342<m\"/<O\351\001=\202\224\250\2753\351\r=pp\\=\35604>\371?\262\273\344\222q\275!n\202\275\rz=\275b\272\237=\017\254\006=G\361\213\275\361-e\2743\362\236\275\374#\263<\363K);\374\300U<\"\230\333\2759\300\340\274_G\342\274\314\230^\275\351\037\034<\356\034\214\274\177\230K\273\265\346]=\035\3138\275\2645u\274pdE<`\"l<\256\301\034\274\204\036S\275\2553\331<\314\221\027:\255&A\275\241o.\273\277<\322<\034\264M=s\303K\276R\222\211=\271\013z=O\004h\275\265\267\221<\325\270\360<q\376\014\275o\215\250\274\326\336\212<Bi\232\275\313\340:=f\347\234\275\220\364\310\274\034\216L=[,[=R`\274\273\340\263\200;s8\254<\334]\324:d\244`=\221\014\375\274\"w\006\274%\327\030=\355\252\357\274\022\243@\275X\326X=\265\344_<\366b\260=\361\326\236\275\216\nF<6,\276\275C\340\024\276yg\357\274$=\224<\231_,=\275\3218=)< =\336\270\241<o\227*=m\340x<o\343\324\275\244k<>\234\037S=\331\225_\276\324b\342\275\252\277\355\274\020\303\005>\002oL>\252\202\324\275\364\250\251=\3511\330\275\216\260\316\274|\370\314\275\032I%=V\203\r\276^3\003>\321Z\\>\377\375\360<;\320\000>\353@\316=\260\362u;%T\020\276\360\362\303=Tn\210\274\010\021\205\2753\240e>\r\270\360=\201>\375\274\010\232\266\275\003\205\360=X\024\247<|R+\276\210\216\005\275\340\022\002>\262\3051\275\273\372]\276J6\221:\2079R>\r\rp\276\277\236\236\274\346\362y>\342\274\236\276\247t~=\362\311 >;=\">P\373\036=d\306 >*\345N\275\261\314\324=\016\225\355\271\24174=f\200:\276\231?\355=(\266\261\274\221\343A>Y\361\006\276<\0130\276\203\261`<\254\2469>\254r\010>\200\0220=\235=&\276\030r)<\2341o=]\314\346\274\366\036\253\275\213\341\336\2744\211\265\275\313T\005>E\340*\275,\3345\276\217:\212<\362\t1>9\310 =m\232\350\275f\336\354\274\365\013\352\275\345U\375=\372~\000\276@%h\276*\321J\276\240\270\245\275*p\227\275{3B>:\262\035\275\336\261Q\276/0\223>\366\360\034\276`\010\201\275\355\301\255\275A\347\r\276>\021\031\275<\"\036=@\250\254\274\347\202\200\276\277\325\t\275|\030\211\275\203\0249\275\234(L\276\313\0267\274\340\211\031\276E\023f\276\006\255\217>\255 